[PAD]
[UNK]
[CLS]
[SEP]
[MASK]
!
"
#
$
%
&
'
(
)
*
+
,
-
.
/
0
1
2
3
4
5
6
7
8
9
:
;
<
=
>
?
@
A
B
C
D
E
F
G
H
I
J
K
L
M
N
O
P
Q
R
S
T
U
V
W
X
Y
Z
[
\
]
^
_
`
a
b
c
d
e
f
g
h
i
j
k
l
m
n
o
p
q
r
s
t
u
v
w
x
y
z
{
|
}
~
©
·
ᄀ
ᄁ
ᄂ
ᄃ
ᄅ
ᄆ
ᄇ
ᄉ
ᄊ
ᄋ
ᄌ
ᄎ
ᄏ
ᄐ
ᄑ
ᄒ
ᄚ
ᄡ
ᅠ
‘
’
“
”
•
‰
′
⁄
∼
《
》
「
」
『
』
【
】
가
각
갂
갃
간
갅
갆
갇
갈
갉
갊
갋
갌
갍
갎
갏
감
갑
값
갓
갔
강
갖
갗
갘
같
갚
갛
개
객
갞
갟
갠
갡
갢
갣
갤
갥
갦
갧
갨
갩
갪
갫
갬
갭
갮
갯
갰
갱
갲
갳
갴
갵
갶
갷
갸
갹
갺
갻
갼
갽
갾
갿
걀
걁
걂
걃
걄
걅
걆
걇
걈
걉
걊
걋
걌
걍
걎
걏
걐
걑
걒
걓
걔
걕
걖
걗
걘
걙
걚
걛
걜
걝
걞
걟
걠
걡
걢
걣
걤
걥
걦
걧
걨
걩
걪
걫
걬
걭
걮
걯
거
걱
걲
걳
건
걵
걶
걷
걸
걹
걺
걻
걼
걽
걾
걿
검
겁
겂
것
겄
겅
겆
겇
겈
겉
겊
겋
게
겍
겎
겏
겐
겑
겒
겓
겔
겕
겖
겗
겘
겙
겚
겛
겜
겝
겞
겟
겠
겡
겢
겣
겤
겥
겦
겧
겨
격
겪
겫
견
겭
겮
겯
결
겱
겲
겳
겴
겵
겶
겷
겸
겹
겺
겻
겼
경
겾
겿
곀
곁
곂
곃
계
곅
곆
곇
곈
곉
곊
곋
곌
곍
곎
곏
곐
곑
곒
곓
곔
곕
곖
곗
곘
곙
곚
곛
곜
곝
곞
곟
고
곡
곢
곣
곤
곥
곦
곧
골
곩
곪
곫
곬
곭
곮
곯
곰
곱
곲
곳
곴
공
곶
곷
곸
곹
곺
곻
과
곽
곾
곿
관
괁
괂
괃
괄
괅
괆
괇
괈
괉
괊
괋
괌
괍
괎
괏
괐
광
괒
괓
괔
괕
괖
괗
괘
괙
괚
괛
괜
괝
괞
괟
괠
괡
괢
괣
괤
괥
괦
괧
괨
괩
괪
괫
괬
괭
괮
괯
괰
괱
괲
괳
괴
괵
괶
괷
괸
괹
괺
괻
괼
괽
괾
괿
굀
굁
굂
굃
굄
굅
굆
굇
굈
굉
굊
굋
굌
굍
굎
굏
교
굑
굒
굓
굔
굕
굖
굗
굘
굙
굚
굛
굜
굝
굞
굟
굠
굡
굢
굣
굤
굥
굦
굧
굨
굩
굪
굫
구
국
굮
굯
군
굱
굲
굳
굴
굵
굶
굷
굸
굹
굺
굻
굼
굽
굾
굿
궀
궁
궂
궃
궄
궅
궆
궇
궈
궉
궊
궋
권
궍
궎
궏
궐
궑
궒
궓
궔
궕
궖
궗
궘
궙
궚
궛
궜
궝
궞
궟
궠
궡
궢
궣
궤
궥
궦
궧
궨
궩
궪
궫
궬
궭
궮
궯
궰
궱
궲
궳
궴
궵
궶
궷
궸
궹
궺
궻
궼
궽
궾
궿
귀
귁
귂
귃
귄
귅
귆
귇
귈
귉
귊
귋
귌
귍
귎
귏
귐
귑
귒
귓
귔
귕
귖
귗
귘
귙
귚
귛
규
귝
귞
귟
균
귡
귢
귣
귤
귥
귦
귧
귨
귩
귪
귫
귬
귭
귮
귯
귰
귱
귲
귳
귴
귵
귶
귷
그
극
귺
귻
근
귽
귾
귿
글
긁
긂
긃
긄
긅
긆
긇
금
급
긊
긋
긌
긍
긎
긏
긐
긑
긒
긓
긔
긕
긖
긗
긘
긙
긚
긛
긜
긝
긞
긟
긠
긡
긢
긣
긤
긥
긦
긧
긨
긩
긪
긫
긬
긭
긮
긯
기
긱
긲
긳
긴
긵
긶
긷
길
긹
긺
긻
긼
긽
긾
긿
김
깁
깂
깃
깄
깅
깆
깇
깈
깉
깊
깋
까
깍
깎
깏
깐
깑
깒
깓
깔
깕
깖
깗
깘
깙
깚
깛
깜
깝
깞
깟
깠
깡
깢
깣
깤
깥
깦
깧
깨
깩
깪
깫
깬
깭
깮
깯
깰
깱
깲
깳
깴
깵
깶
깷
깸
깹
깺
깻
깼
깽
깾
깿
꺀
꺁
꺂
꺃
꺄
꺅
꺆
꺇
꺈
꺉
꺊
꺋
꺌
꺍
꺎
꺏
꺐
꺑
꺒
꺓
꺔
꺕
꺖
꺗
꺘
꺙
꺚
꺛
꺜
꺝
꺞
꺟
꺠
꺡
꺢
꺣
꺤
꺥
꺦
꺧
꺨
꺩
꺪
꺫
꺬
꺭
꺮
꺯
꺰
꺱
꺲
꺳
꺴
꺵
꺶
꺷
꺸
꺹
꺺
꺻
꺼
꺽
꺾
꺿
껀
껁
껂
껃
껄
껅
껆
껇
껈
껉
껊
껋
껌
껍
껎
껏
껐
껑
껒
껓
껔
껕
껖
껗
께
껙
껚
껛
껜
껝
껞
껟
껠
껡
껢
껣
껤
껥
껦
껧
껨
껩
껪
껫
껬
껭
껮
껯
껰
껱
껲
껳
껴
껵
껶
껷
껸
껹
껺
껻
껼
껽
껾
껿
꼀
꼁
꼂
꼃
꼄
꼅
꼆
꼇
꼈
꼉
꼊
꼋
꼌
꼍
꼎
꼏
꼐
꼑
꼒
꼓
꼔
꼕
꼖
꼗
꼘
꼙
꼚
꼛
꼜
꼝
꼞
꼟
꼠
꼡
꼢
꼣
꼤
꼥
꼦
꼧
꼨
꼩
꼪
꼫
꼬
꼭
꼮
꼯
꼰
꼱
꼲
꼳
꼴
꼵
꼶
꼷
꼸
꼹
꼺
꼻
꼼
꼽
꼾
꼿
꽀
꽁
꽂
꽃
꽄
꽅
꽆
꽇
꽈
꽉
꽊
꽋
꽌
꽍
꽎
꽏
꽐
꽑
꽒
꽓
꽔
꽕
꽖
꽗
꽘
꽙
꽚
꽛
꽜
꽝
꽞
꽟
꽠
꽡
꽢
꽣
꽤
꽥
꽦
꽧
꽨
꽩
꽪
꽫
꽬
꽭
꽮
꽯
꽰
꽱
꽲
꽳
꽴
꽵
꽶
꽷
꽸
꽹
꽺
꽻
꽼
꽽
꽾
꽿
꾀
꾁
꾂
꾃
꾄
꾅
꾆
꾇
꾈
꾉
꾊
꾋
꾌
꾍
꾎
꾏
꾐
꾑
꾒
꾓
꾔
꾕
꾖
꾗
꾘
꾙
꾚
꾛
꾜
꾝
꾞
꾟
꾠
꾡
꾢
꾣
꾤
꾥
꾦
꾧
꾨
꾩
꾪
꾫
꾬
꾭
꾮
꾯
꾰
꾱
꾲
꾳
꾴
꾵
꾶
꾷
꾸
꾹
꾺
꾻
꾼
꾽
꾾
꾿
꿀
꿁
꿂
꿃
꿄
꿅
꿆
꿇
꿈
꿉
꿊
꿋
꿌
꿍
꿎
꿏
꿐
꿑
꿒
꿓
꿔
꿕
꿖
꿗
꿘
꿙
꿚
꿛
꿜
꿝
꿞
꿟
꿠
꿡
꿢
꿣
꿤
꿥
꿦
꿧
꿨
꿩
꿪
꿫
꿬
꿭
꿮
꿯
꿰
꿱
꿲
꿳
꿴
꿵
꿶
꿷
꿸
꿹
꿺
꿻
꿼
꿽
꿾
꿿
뀀
뀁
뀂
뀃
뀄
뀅
뀆
뀇
뀈
뀉
뀊
뀋
뀌
뀍
뀎
뀏
뀐
뀑
뀒
뀓
뀔
뀕
뀖
뀗
뀘
뀙
뀚
뀛
뀜
뀝
뀞
뀟
뀠
뀡
뀢
뀣
뀤
뀥
뀦
뀧
뀨
뀩
뀪
뀫
뀬
뀭
뀮
뀯
뀰
뀱
뀲
뀳
뀴
뀵
뀶
뀷
뀸
뀹
뀺
뀻
뀼
뀽
뀾
뀿
끀
끁
끂
끃
끄
끅
끆
끇
끈
끉
끊
끋
끌
끍
끎
끏
끐
끑
끒
끓
끔
끕
끖
끗
끘
끙
끚
끛
끜
끝
끞
끟
끠
끡
끢
끣
끤
끥
끦
끧
끨
끩
끪
끫
끬
끭
끮
끯
끰
끱
끲
끳
끴
끵
끶
끷
끸
끹
끺
끻
끼
끽
끾
끿
낀
낁
낂
낃
낄
낅
낆
낇
낈
낉
낊
낋
낌
낍
낎
낏
낐
낑
낒
낓
낔
낕
낖
낗
나
낙
낚
낛
난
낝
낞
낟
날
낡
낢
낣
낤
낥
낦
낧
남
납
낪
낫
났
낭
낮
낯
낰
낱
낲
낳
내
낵
낶
낷
낸
낹
낺
낻
낼
낽
낾
낿
냀
냁
냂
냃
냄
냅
냆
냇
냈
냉
냊
냋
냌
냍
냎
냏
냐
냑
냒
냓
냔
냕
냖
냗
냘
냙
냚
냛
냜
냝
냞
냟
냠
냡
냢
냣
냤
냥
냦
냧
냨
냩
냪
냫
냬
냭
냮
냯
냰
냱
냲
냳
냴
냵
냶
냷
냸
냹
냺
냻
냼
냽
냾
냿
넀
넁
넂
넃
넄
넅
넆
넇
너
넉
넊
넋
넌
넍
넎
넏
널
넑
넒
넓
넔
넕
넖
넗
넘
넙
넚
넛
넜
넝
넞
넟
넠
넡
넢
넣
네
넥
넦
넧
넨
넩
넪
넫
넬
넭
넮
넯
넰
넱
넲
넳
넴
넵
넶
넷
넸
넹
넺
넻
넼
넽
넾
넿
녀
녁
녂
녃
년
녅
녆
녇
녈
녉
녊
녋
녌
녍
녎
녏
념
녑
녒
녓
녔
녕
녖
녗
녘
녙
녚
녛
녜
녝
녞
녟
녠
녡
녢
녣
녤
녥
녦
녧
녨
녩
녪
녫
녬
녭
녮
녯
녰
녱
녲
녳
녴
녵
녶
녷
노
녹
녺
녻
논
녽
녾
녿
놀
놁
놂
놃
놄
놅
놆
놇
놈
놉
놊
놋
놌
농
놎
놏
놐
놑
높
놓
놔
놕
놖
놗
놘
놙
놚
놛
놜
놝
놞
놟
놠
놡
놢
놣
놤
놥
놦
놧
놨
놩
놪
놫
놬
놭
놮
놯
놰
놱
놲
놳
놴
놵
놶
놷
놸
놹
놺
놻
놼
놽
놾
놿
뇀
뇁
뇂
뇃
뇄
뇅
뇆
뇇
뇈
뇉
뇊
뇋
뇌
뇍
뇎
뇏
뇐
뇑
뇒
뇓
뇔
뇕
뇖
뇗
뇘
뇙
뇚
뇛
뇜
뇝
뇞
뇟
뇠
뇡
뇢
뇣
뇤
뇥
뇦
뇧
뇨
뇩
뇪
뇫
뇬
뇭
뇮
뇯
뇰
뇱
뇲
뇳
뇴
뇵
뇶
뇷
뇸
뇹
뇺
뇻
뇼
뇽
뇾
뇿
눀
눁
눂
눃
누
눅
눆
눇
눈
눉
눊
눋
눌
눍
눎
눏
눐
눑
눒
눓
눔
눕
눖
눗
눘
눙
눚
눛
눜
눝
눞
눟
눠
눡
눢
눣
눤
눥
눦
눧
눨
눩
눪
눫
눬
눭
눮
눯
눰
눱
눲
눳
눴
눵
눶
눷
눸
눹
눺
눻
눼
눽
눾
눿
뉀
뉁
뉂
뉃
뉄
뉅
뉆
뉇
뉈
뉉
뉊
뉋
뉌
뉍
뉎
뉏
뉐
뉑
뉒
뉓
뉔
뉕
뉖
뉗
뉘
뉙
뉚
뉛
뉜
뉝
뉞
뉟
뉠
뉡
뉢
뉣
뉤
뉥
뉦
뉧
뉨
뉩
뉪
뉫
뉬
뉭
뉮
뉯
뉰
뉱
뉲
뉳
뉴
뉵
뉶
뉷
뉸
뉹
뉺
뉻
뉼
뉽
뉾
뉿
늀
늁
늂
늃
늄
늅
늆
늇
늈
늉
늊
늋
늌
늍
늎
늏
느
늑
늒
늓
는
늕
늖
늗
늘
늙
늚
늛
늜
늝
늞
늟
늠
늡
늢
늣
늤
능
늦
늧
늨
늩
늪
늫
늬
늭
늮
늯
늰
늱
늲
늳
늴
늵
늶
늷
늸
늹
늺
늻
늼
늽
늾
늿
닀
닁
닂
닃
닄
닅
닆
닇
니
닉
닊
닋
닌
닍
닎
닏
닐
닑
닒
닓
닔
닕
닖
닗
님
닙
닚
닛
닜
닝
닞
닟
닠
닡
닢
닣
다
닥
닦
닧
단
닩
닪
닫
달
닭
닮
닯
닰
닱
닲
닳
담
답
닶
닷
닸
당
닺
닻
닼
닽
닾
닿
대
댁
댂
댃
댄
댅
댆
댇
댈
댉
댊
댋
댌
댍
댎
댏
댐
댑
댒
댓
댔
댕
댖
댗
댘
댙
댚
댛
댜
댝
댞
댟
댠
댡
댢
댣
댤
댥
댦
댧
댨
댩
댪
댫
댬
댭
댮
댯
댰
댱
댲
댳
댴
댵
댶
댷
댸
댹
댺
댻
댼
댽
댾
댿
덀
덁
덂
덃
덄
덅
덆
덇
덈
덉
덊
덋
덌
덍
덎
덏
덐
덑
덒
덓
더
덕
덖
덗
던
덙
덚
덛
덜
덝
덞
덟
덠
덡
덢
덣
덤
덥
덦
덧
덨
덩
덪
덫
덬
덭
덮
덯
데
덱
덲
덳
덴
덵
덶
덷
델
덹
덺
덻
덼
덽
덾
덿
뎀
뎁
뎂
뎃
뎄
뎅
뎆
뎇
뎈
뎉
뎊
뎋
뎌
뎍
뎎
뎏
뎐
뎑
뎒
뎓
뎔
뎕
뎖
뎗
뎘
뎙
뎚
뎛
뎜
뎝
뎞
뎟
뎠
뎡
뎢
뎣
뎤
뎥
뎦
뎧
뎨
뎩
뎪
뎫
뎬
뎭
뎮
뎯
뎰
뎱
뎲
뎳
뎴
뎵
뎶
뎷
뎸
뎹
뎺
뎻
뎼
뎽
뎾
뎿
돀
돁
돂
돃
도
독
돆
돇
돈
돉
돊
돋
돌
돍
돎
돏
돐
돑
돒
돓
돔
돕
돖
돗
돘
동
돚
돛
돜
돝
돞
돟
돠
돡
돢
돣
돤
돥
돦
돧
돨
돩
돪
돫
돬
돭
돮
돯
돰
돱
돲
돳
돴
돵
돶
돷
돸
돹
돺
돻
돼
돽
돾
돿
됀
됁
됂
됃
됄
됅
됆
됇
됈
됉
됊
됋
됌
됍
됎
됏
됐
됑
됒
됓
됔
됕
됖
됗
되
됙
됚
됛
된
됝
됞
됟
될
됡
됢
됣
됤
됥
됦
됧
됨
됩
됪
됫
됬
됭
됮
됯
됰
됱
됲
됳
됴
됵
됶
됷
됸
됹
됺
됻
됼
됽
됾
됿
둀
둁
둂
둃
둄
둅
둆
둇
둈
둉
둊
둋
둌
둍
둎
둏
두
둑
둒
둓
둔
둕
둖
둗
둘
둙
둚
둛
둜
둝
둞
둟
둠
둡
둢
둣
둤
둥
둦
둧
둨
둩
둪
둫
둬
둭
둮
둯
둰
둱
둲
둳
둴
둵
둶
둷
둸
둹
둺
둻
둼
둽
둾
둿
뒀
뒁
뒂
뒃
뒄
뒅
뒆
뒇
뒈
뒉
뒊
뒋
뒌
뒍
뒎
뒏
뒐
뒑
뒒
뒓
뒔
뒕
뒖
뒗
뒘
뒙
뒚
뒛
뒜
뒝
뒞
뒟
뒠
뒡
뒢
뒣
뒤
뒥
뒦
뒧
뒨
뒩
뒪
뒫
뒬
뒭
뒮
뒯
뒰
뒱
뒲
뒳
뒴
뒵
뒶
뒷
뒸
뒹
뒺
뒻
뒼
뒽
뒾
뒿
듀
듁
듂
듃
듄
듅
듆
듇
듈
듉
듊
듋
듌
듍
듎
듏
듐
듑
듒
듓
듔
듕
듖
듗
듘
듙
듚
듛
드
득
듞
듟
든
듡
듢
듣
들
듥
듦
듧
듨
듩
듪
듫
듬
듭
듮
듯
듰
등
듲
듳
듴
듵
듶
듷
듸
듹
듺
듻
듼
듽
듾
듿
딀
딁
딂
딃
딄
딅
딆
딇
딈
딉
딊
딋
딌
딍
딎
딏
딐
딑
딒
딓
디
딕
딖
딗
딘
딙
딚
딛
딜
딝
딞
딟
딠
딡
딢
딣
딤
딥
딦
딧
딨
딩
딪
딫
딬
딭
딮
딯
따
딱
딲
딳
딴
딵
딶
딷
딸
딹
딺
딻
딼
딽
딾
딿
땀
땁
땂
땃
땄
땅
땆
땇
땈
땉
땊
땋
때
땍
땎
땏
땐
땑
땒
땓
땔
땕
땖
땗
땘
땙
땚
땛
땜
땝
땞
땟
땠
땡
땢
땣
땤
땥
땦
땧
땨
땩
땪
땫
땬
땭
땮
땯
땰
땱
땲
땳
땴
땵
땶
땷
땸
땹
땺
땻
땼
땽
땾
땿
떀
떁
떂
떃
떄
떅
떆
떇
떈
떉
떊
떋
떌
떍
떎
떏
떐
떑
떒
떓
떔
떕
떖
떗
떘
떙
떚
떛
떜
떝
떞
떟
떠
떡
떢
떣
떤
떥
떦
떧
떨
떩
떪
떫
떬
떭
떮
떯
떰
떱
떲
떳
떴
떵
떶
떷
떸
떹
떺
떻
떼
떽
떾
떿
뗀
뗁
뗂
뗃
뗄
뗅
뗆
뗇
뗈
뗉
뗊
뗋
뗌
뗍
뗎
뗏
뗐
뗑
뗒
뗓
뗔
뗕
뗖
뗗
뗘
뗙
뗚
뗛
뗜
뗝
뗞
뗟
뗠
뗡
뗢
뗣
뗤
뗥
뗦
뗧
뗨
뗩
뗪
뗫
뗬
뗭
뗮
뗯
뗰
뗱
뗲
뗳
뗴
뗵
뗶
뗷
뗸
뗹
뗺
뗻
뗼
뗽
뗾
뗿
똀
똁
똂
똃
똄
똅
똆
똇
똈
똉
똊
똋
똌
똍
똎
똏
또
똑
똒
똓
똔
똕
똖
똗
똘
똙
똚
똛
똜
똝
똞
똟
똠
똡
똢
똣
똤
똥
똦
똧
똨
똩
똪
똫
똬
똭
똮
똯
똰
똱
똲
똳
똴
똵
똶
똷
똸
똹
똺
똻
똼
똽
똾
똿
뙀
뙁
뙂
뙃
뙄
뙅
뙆
뙇
뙈
뙉
뙊
뙋
뙌
뙍
뙎
뙏
뙐
뙑
뙒
뙓
뙔
뙕
뙖
뙗
뙘
뙙
뙚
뙛
뙜
뙝
뙞
뙟
뙠
뙡
뙢
뙣
뙤
뙥
뙦
뙧
뙨
뙩
뙪
뙫
뙬
뙭
뙮
뙯
뙰
뙱
뙲
뙳
뙴
뙵
뙶
뙷
뙸
뙹
뙺
뙻
뙼
뙽
뙾
뙿
뚀
뚁
뚂
뚃
뚄
뚅
뚆
뚇
뚈
뚉
뚊
뚋
뚌
뚍
뚎
뚏
뚐
뚑
뚒
뚓
뚔
뚕
뚖
뚗
뚘
뚙
뚚
뚛
뚜
뚝
뚞
뚟
뚠
뚡
뚢
뚣
뚤
뚥
뚦
뚧
뚨
뚩
뚪
뚫
뚬
뚭
뚮
뚯
뚰
뚱
뚲
뚳
뚴
뚵
뚶
뚷
뚸
뚹
뚺
뚻
뚼
뚽
뚾
뚿
뛀
뛁
뛂
뛃
뛄
뛅
뛆
뛇
뛈
뛉
뛊
뛋
뛌
뛍
뛎
뛏
뛐
뛑
뛒
뛓
뛔
뛕
뛖
뛗
뛘
뛙
뛚
뛛
뛜
뛝
뛞
뛟
뛠
뛡
뛢
뛣
뛤
뛥
뛦
뛧
뛨
뛩
뛪
뛫
뛬
뛭
뛮
뛯
뛰
뛱
뛲
뛳
뛴
뛵
뛶
뛷
뛸
뛹
뛺
뛻
뛼
뛽
뛾
뛿
뜀
뜁
뜂
뜃
뜄
뜅
뜆
뜇
뜈
뜉
뜊
뜋
뜌
뜍
뜎
뜏
뜐
뜑
뜒
뜓
뜔
뜕
뜖
뜗
뜘
뜙
뜚
뜛
뜜
뜝
뜞
뜟
뜠
뜡
뜢
뜣
뜤
뜥
뜦
뜧
뜨
뜩
뜪
뜫
뜬
뜭
뜮
뜯
뜰
뜱
뜲
뜳
뜴
뜵
뜶
뜷
뜸
뜹
뜺
뜻
뜼
뜽
뜾
뜿
띀
띁
띂
띃
띄
띅
띆
띇
띈
띉
띊
띋
띌
띍
띎
띏
띐
띑
띒
띓
띔
띕
띖
띗
띘
띙
띚
띛
띜
띝
띞
띟
띠
띡
띢
띣
띤
띥
띦
띧
띨
띩
띪
띫
띬
띭
띮
띯
띰
띱
띲
띳
띴
띵
띶
띷
띸
띹
띺
띻
라
락
띾
띿
란
랁
랂
랃
랄
랅
랆
랇
랈
랉
랊
랋
람
랍
랎
랏
랐
랑
랒
랓
랔
랕
랖
랗
래
랙
랚
랛
랜
랝
랞
랟
랠
랡
랢
랣
랤
랥
랦
랧
램
랩
랪
랫
랬
랭
랮
랯
랰
랱
랲
랳
랴
략
랶
랷
랸
랹
랺
랻
랼
랽
랾
랿
럀
럁
럂
럃
럄
럅
럆
럇
럈
량
럊
럋
럌
럍
럎
럏
럐
럑
럒
럓
럔
럕
럖
럗
럘
럙
럚
럛
럜
럝
럞
럟
럠
럡
럢
럣
럤
럥
럦
럧
럨
럩
럪
럫
러
럭
럮
럯
런
럱
럲
럳
럴
럵
럶
럷
럸
럹
럺
럻
럼
럽
럾
럿
렀
렁
렂
렃
렄
렅
렆
렇
레
렉
렊
렋
렌
렍
렎
렏
렐
렑
렒
렓
렔
렕
렖
렗
렘
렙
렚
렛
렜
렝
렞
렟
렠
렡
렢
렣
려
력
렦
렧
련
렩
렪
렫
렬
렭
렮
렯
렰
렱
렲
렳
렴
렵
렶
렷
렸
령
렺
렻
렼
렽
렾
렿
례
롁
롂
롃
롄
롅
롆
롇
롈
롉
롊
롋
롌
롍
롎
롏
롐
롑
롒
롓
롔
롕
롖
롗
롘
롙
롚
롛
로
록
롞
롟
론
롡
롢
롣
롤
롥
롦
롧
롨
롩
롪
롫
롬
롭
롮
롯
롰
롱
롲
롳
롴
롵
롶
롷
롸
롹
롺
롻
롼
롽
롾
롿
뢀
뢁
뢂
뢃
뢄
뢅
뢆
뢇
뢈
뢉
뢊
뢋
뢌
뢍
뢎
뢏
뢐
뢑
뢒
뢓
뢔
뢕
뢖
뢗
뢘
뢙
뢚
뢛
뢜
뢝
뢞
뢟
뢠
뢡
뢢
뢣
뢤
뢥
뢦
뢧
뢨
뢩
뢪
뢫
뢬
뢭
뢮
뢯
뢰
뢱
뢲
뢳
뢴
뢵
뢶
뢷
뢸
뢹
뢺
뢻
뢼
뢽
뢾
뢿
룀
룁
룂
룃
룄
룅
룆
룇
룈
룉
룊
룋
료
룍
룎
룏
룐
룑
룒
룓
룔
룕
룖
룗
룘
룙
룚
룛
룜
룝
룞
룟
룠
룡
룢
룣
룤
룥
룦
룧
루
룩
룪
룫
룬
룭
룮
룯
룰
룱
룲
룳
룴
룵
룶
룷
룸
룹
룺
룻
룼
룽
룾
룿
뤀
뤁
뤂
뤃
뤄
뤅
뤆
뤇
뤈
뤉
뤊
뤋
뤌
뤍
뤎
뤏
뤐
뤑
뤒
뤓
뤔
뤕
뤖
뤗
뤘
뤙
뤚
뤛
뤜
뤝
뤞
뤟
뤠
뤡
뤢
뤣
뤤
뤥
뤦
뤧
뤨
뤩
뤪
뤫
뤬
뤭
뤮
뤯
뤰
뤱
뤲
뤳
뤴
뤵
뤶
뤷
뤸
뤹
뤺
뤻
뤼
뤽
뤾
뤿
륀
륁
륂
륃
륄
륅
륆
륇
륈
륉
륊
륋
륌
륍
륎
륏
륐
륑
륒
륓
륔
륕
륖
륗
류
륙
륚
륛
륜
륝
륞
륟
률
륡
륢
륣
륤
륥
륦
륧
륨
륩
륪
륫
륬
륭
륮
륯
륰
륱
륲
륳
르
륵
륶
륷
른
륹
륺
륻
를
륽
륾
륿
릀
릁
릂
릃
름
릅
릆
릇
릈
릉
릊
릋
릌
릍
릎
릏
릐
릑
릒
릓
릔
릕
릖
릗
릘
릙
릚
릛
릜
릝
릞
릟
릠
릡
릢
릣
릤
릥
릦
릧
릨
릩
릪
릫
리
릭
릮
릯
린
릱
릲
릳
릴
릵
릶
릷
릸
릹
릺
릻
림
립
릾
릿
맀
링
맂
맃
맄
맅
맆
맇
마
막
맊
맋
만
맍
많
맏
말
맑
맒
맓
맔
맕
맖
맗
맘
맙
맚
맛
맜
망
맞
맟
맠
맡
맢
맣
매
맥
맦
맧
맨
맩
맪
맫
맬
맭
맮
맯
맰
맱
맲
맳
맴
맵
맶
맷
맸
맹
맺
맻
맼
맽
맾
맿
먀
먁
먂
먃
먄
먅
먆
먇
먈
먉
먊
먋
먌
먍
먎
먏
먐
먑
먒
먓
먔
먕
먖
먗
먘
먙
먚
먛
먜
먝
먞
먟
먠
먡
먢
먣
먤
먥
먦
먧
먨
먩
먪
먫
먬
먭
먮
먯
먰
먱
먲
먳
먴
먵
먶
먷
머
먹
먺
먻
먼
먽
먾
먿
멀
멁
멂
멃
멄
멅
멆
멇
멈
멉
멊
멋
멌
멍
멎
멏
멐
멑
멒
멓
메
멕
멖
멗
멘
멙
멚
멛
멜
멝
멞
멟
멠
멡
멢
멣
멤
멥
멦
멧
멨
멩
멪
멫
멬
멭
멮
멯
며
멱
멲
멳
면
멵
멶
멷
멸
멹
멺
멻
멼
멽
멾
멿
몀
몁
몂
몃
몄
명
몆
몇
몈
몉
몊
몋
몌
몍
몎
몏
몐
몑
몒
몓
몔
몕
몖
몗
몘
몙
몚
몛
몜
몝
몞
몟
몠
몡
몢
몣
몤
몥
몦
몧
모
목
몪
몫
몬
몭
몮
몯
몰
몱
몲
몳
몴
몵
몶
몷
몸
몹
몺
못
몼
몽
몾
몿
뫀
뫁
뫂
뫃
뫄
뫅
뫆
뫇
뫈
뫉
뫊
뫋
뫌
뫍
뫎
뫏
뫐
뫑
뫒
뫓
뫔
뫕
뫖
뫗
뫘
뫙
뫚
뫛
뫜
뫝
뫞
뫟
뫠
뫡
뫢
뫣
뫤
뫥
뫦
뫧
뫨
뫩
뫪
뫫
뫬
뫭
뫮
뫯
뫰
뫱
뫲
뫳
뫴
뫵
뫶
뫷
뫸
뫹
뫺
뫻
뫼
뫽
뫾
뫿
묀
묁
묂
묃
묄
묅
묆
묇
묈
묉
묊
묋
묌
묍
묎
묏
묐
묑
묒
묓
묔
묕
묖
묗
묘
묙
묚
묛
묜
묝
묞
묟
묠
묡
묢
묣
묤
묥
묦
묧
묨
묩
묪
묫
묬
묭
묮
묯
묰
묱
묲
묳
무
묵
묶
묷
문
묹
묺
묻
물
묽
묾
묿
뭀
뭁
뭂
뭃
뭄
뭅
뭆
뭇
뭈
뭉
뭊
뭋
뭌
뭍
뭎
뭏
뭐
뭑
뭒
뭓
뭔
뭕
뭖
뭗
뭘
뭙
뭚
뭛
뭜
뭝
뭞
뭟
뭠
뭡
뭢
뭣
뭤
뭥
뭦
뭧
뭨
뭩
뭪
뭫
뭬
뭭
뭮
뭯
뭰
뭱
뭲
뭳
뭴
뭵
뭶
뭷
뭸
뭹
뭺
뭻
뭼
뭽
뭾
뭿
뮀
뮁
뮂
뮃
뮄
뮅
뮆
뮇
뮈
뮉
뮊
뮋
뮌
뮍
뮎
뮏
뮐
뮑
뮒
뮓
뮔
뮕
뮖
뮗
뮘
뮙
뮚
뮛
뮜
뮝
뮞
뮟
뮠
뮡
뮢
뮣
뮤
뮥
뮦
뮧
뮨
뮩
뮪
뮫
뮬
뮭
뮮
뮯
뮰
뮱
뮲
뮳
뮴
뮵
뮶
뮷
뮸
뮹
뮺
뮻
뮼
뮽
뮾
뮿
므
믁
믂
믃
믄
믅
믆
믇
믈
믉
믊
믋
믌
믍
믎
믏
믐
믑
믒
믓
믔
믕
믖
믗
믘
믙
믚
믛
믜
믝
믞
믟
믠
믡
믢
믣
믤
믥
믦
믧
믨
믩
믪
믫
믬
믭
믮
믯
믰
믱
믲
믳
믴
믵
믶
믷
미
믹
믺
믻
민
믽
믾
믿
밀
밁
밂
밃
밄
밅
밆
밇
밈
밉
밊
밋
밌
밍
밎
및
밐
밑
밒
밓
바
박
밖
밗
반
밙
밚
받
발
밝
밞
밟
밠
밡
밢
밣
밤
밥
밦
밧
밨
방
밪
밫
밬
밭
밮
밯
배
백
밲
밳
밴
밵
밶
밷
밸
밹
밺
밻
밼
밽
밾
밿
뱀
뱁
뱂
뱃
뱄
뱅
뱆
뱇
뱈
뱉
뱊
뱋
뱌
뱍
뱎
뱏
뱐
뱑
뱒
뱓
뱔
뱕
뱖
뱗
뱘
뱙
뱚
뱛
뱜
뱝
뱞
뱟
뱠
뱡
뱢
뱣
뱤
뱥
뱦
뱧
뱨
뱩
뱪
뱫
뱬
뱭
뱮
뱯
뱰
뱱
뱲
뱳
뱴
뱵
뱶
뱷
뱸
뱹
뱺
뱻
뱼
뱽
뱾
뱿
벀
벁
벂
벃
버
벅
벆
벇
번
벉
벊
벋
벌
벍
벎
벏
벐
벑
벒
벓
범
법
벖
벗
벘
벙
벚
벛
벜
벝
벞
벟
베
벡
벢
벣
벤
벥
벦
벧
벨
벩
벪
벫
벬
벭
벮
벯
벰
벱
벲
벳
벴
벵
벶
벷
벸
벹
벺
벻
벼
벽
벾
벿
변
볁
볂
볃
별
볅
볆
볇
볈
볉
볊
볋
볌
볍
볎
볏
볐
병
볒
볓
볔
볕
볖
볗
볘
볙
볚
볛
볜
볝
볞
볟
볠
볡
볢
볣
볤
볥
볦
볧
볨
볩
볪
볫
볬
볭
볮
볯
볰
볱
볲
볳
보
복
볶
볷
본
볹
볺
볻
볼
볽
볾
볿
봀
봁
봂
봃
봄
봅
봆
봇
봈
봉
봊
봋
봌
봍
봎
봏
봐
봑
봒
봓
봔
봕
봖
봗
봘
봙
봚
봛
봜
봝
봞
봟
봠
봡
봢
봣
봤
봥
봦
봧
봨
봩
봪
봫
봬
봭
봮
봯
봰
봱
봲
봳
봴
봵
봶
봷
봸
봹
봺
봻
봼
봽
봾
봿
뵀
뵁
뵂
뵃
뵄
뵅
뵆
뵇
뵈
뵉
뵊
뵋
뵌
뵍
뵎
뵏
뵐
뵑
뵒
뵓
뵔
뵕
뵖
뵗
뵘
뵙
뵚
뵛
뵜
뵝
뵞
뵟
뵠
뵡
뵢
뵣
뵤
뵥
뵦
뵧
뵨
뵩
뵪
뵫
뵬
뵭
뵮
뵯
뵰
뵱
뵲
뵳
뵴
뵵
뵶
뵷
뵸
뵹
뵺
뵻
뵼
뵽
뵾
뵿
부
북
붂
붃
분
붅
붆
붇
불
붉
붊
붋
붌
붍
붎
붏
붐
붑
붒
붓
붔
붕
붖
붗
붘
붙
붚
붛
붜
붝
붞
붟
붠
붡
붢
붣
붤
붥
붦
붧
붨
붩
붪
붫
붬
붭
붮
붯
붰
붱
붲
붳
붴
붵
붶
붷
붸
붹
붺
붻
붼
붽
붾
붿
뷀
뷁
뷂
뷃
뷄
뷅
뷆
뷇
뷈
뷉
뷊
뷋
뷌
뷍
뷎
뷏
뷐
뷑
뷒
뷓
뷔
뷕
뷖
뷗
뷘
뷙
뷚
뷛
뷜
뷝
뷞
뷟
뷠
뷡
뷢
뷣
뷤
뷥
뷦
뷧
뷨
뷩
뷪
뷫
뷬
뷭
뷮
뷯
뷰
뷱
뷲
뷳
뷴
뷵
뷶
뷷
뷸
뷹
뷺
뷻
뷼
뷽
뷾
뷿
븀
븁
븂
븃
븄
븅
븆
븇
븈
븉
븊
븋
브
븍
븎
븏
븐
븑
븒
븓
블
븕
븖
븗
븘
븙
븚
븛
븜
븝
븞
븟
븠
븡
븢
븣
븤
븥
븦
븧
븨
븩
븪
븫
븬
븭
븮
븯
븰
븱
븲
븳
븴
븵
븶
븷
븸
븹
븺
븻
븼
븽
븾
븿
빀
빁
빂
빃
비
빅
빆
빇
빈
빉
빊
빋
빌
빍
빎
빏
빐
빑
빒
빓
빔
빕
빖
빗
빘
빙
빚
빛
빜
빝
빞
빟
빠
빡
빢
빣
빤
빥
빦
빧
빨
빩
빪
빫
빬
빭
빮
빯
빰
빱
빲
빳
빴
빵
빶
빷
빸
빹
빺
빻
빼
빽
빾
빿
뺀
뺁
뺂
뺃
뺄
뺅
뺆
뺇
뺈
뺉
뺊
뺋
뺌
뺍
뺎
뺏
뺐
뺑
뺒
뺓
뺔
뺕
뺖
뺗
뺘
뺙
뺚
뺛
뺜
뺝
뺞
뺟
뺠
뺡
뺢
뺣
뺤
뺥
뺦
뺧
뺨
뺩
뺪
뺫
뺬
뺭
뺮
뺯
뺰
뺱
뺲
뺳
뺴
뺵
뺶
뺷
뺸
뺹
뺺
뺻
뺼
뺽
뺾
뺿
뻀
뻁
뻂
뻃
뻄
뻅
뻆
뻇
뻈
뻉
뻊
뻋
뻌
뻍
뻎
뻏
뻐
뻑
뻒
뻓
뻔
뻕
뻖
뻗
뻘
뻙
뻚
뻛
뻜
뻝
뻞
뻟
뻠
뻡
뻢
뻣
뻤
뻥
뻦
뻧
뻨
뻩
뻪
뻫
뻬
뻭
뻮
뻯
뻰
뻱
뻲
뻳
뻴
뻵
뻶
뻷
뻸
뻹
뻺
뻻
뻼
뻽
뻾
뻿
뼀
뼁
뼂
뼃
뼄
뼅
뼆
뼇
뼈
뼉
뼊
뼋
뼌
뼍
뼎
뼏
뼐
뼑
뼒
뼓
뼔
뼕
뼖
뼗
뼘
뼙
뼚
뼛
뼜
뼝
뼞
뼟
뼠
뼡
뼢
뼣
뼤
뼥
뼦
뼧
뼨
뼩
뼪
뼫
뼬
뼭
뼮
뼯
뼰
뼱
뼲
뼳
뼴
뼵
뼶
뼷
뼸
뼹
뼺
뼻
뼼
뼽
뼾
뼿
뽀
뽁
뽂
뽃
뽄
뽅
뽆
뽇
뽈
뽉
뽊
뽋
뽌
뽍
뽎
뽏
뽐
뽑
뽒
뽓
뽔
뽕
뽖
뽗
뽘
뽙
뽚
뽛
뽜
뽝
뽞
뽟
뽠
뽡
뽢
뽣
뽤
뽥
뽦
뽧
뽨
뽩
뽪
뽫
뽬
뽭
뽮
뽯
뽰
뽱
뽲
뽳
뽴
뽵
뽶
뽷
뽸
뽹
뽺
뽻
뽼
뽽
뽾
뽿
뾀
뾁
뾂
뾃
뾄
뾅
뾆
뾇
뾈
뾉
뾊
뾋
뾌
뾍
뾎
뾏
뾐
뾑
뾒
뾓
뾔
뾕
뾖
뾗
뾘
뾙
뾚
뾛
뾜
뾝
뾞
뾟
뾠
뾡
뾢
뾣
뾤
뾥
뾦
뾧
뾨
뾩
뾪
뾫
뾬
뾭
뾮
뾯
뾰
뾱
뾲
뾳
뾴
뾵
뾶
뾷
뾸
뾹
뾺
뾻
뾼
뾽
뾾
뾿
뿀
뿁
뿂
뿃
뿄
뿅
뿆
뿇
뿈
뿉
뿊
뿋
뿌
뿍
뿎
뿏
뿐
뿑
뿒
뿓
뿔
뿕
뿖
뿗
뿘
뿙
뿚
뿛
뿜
뿝
뿞
뿟
뿠
뿡
뿢
뿣
뿤
뿥
뿦
뿧
뿨
뿩
뿪
뿫
뿬
뿭
뿮
뿯
뿰
뿱
뿲
뿳
뿴
뿵
뿶
뿷
뿸
뿹
뿺
뿻
뿼
뿽
뿾
뿿
쀀
쀁
쀂
쀃
쀄
쀅
쀆
쀇
쀈
쀉
쀊
쀋
쀌
쀍
쀎
쀏
쀐
쀑
쀒
쀓
쀔
쀕
쀖
쀗
쀘
쀙
쀚
쀛
쀜
쀝
쀞
쀟
쀠
쀡
쀢
쀣
쀤
쀥
쀦
쀧
쀨
쀩
쀪
쀫
쀬
쀭
쀮
쀯
쀰
쀱
쀲
쀳
쀴
쀵
쀶
쀷
쀸
쀹
쀺
쀻
쀼
쀽
쀾
쀿
쁀
쁁
쁂
쁃
쁄
쁅
쁆
쁇
쁈
쁉
쁊
쁋
쁌
쁍
쁎
쁏
쁐
쁑
쁒
쁓
쁔
쁕
쁖
쁗
쁘
쁙
쁚
쁛
쁜
쁝
쁞
쁟
쁠
쁡
쁢
쁣
쁤
쁥
쁦
쁧
쁨
쁩
쁪
쁫
쁬
쁭
쁮
쁯
쁰
쁱
쁲
쁳
쁴
쁵
쁶
쁷
쁸
쁹
쁺
쁻
쁼
쁽
쁾
쁿
삀
삁
삂
삃
삄
삅
삆
삇
삈
삉
삊
삋
삌
삍
삎
삏
삐
삑
삒
삓
삔
삕
삖
삗
삘
삙
삚
삛
삜
삝
삞
삟
삠
삡
삢
삣
삤
삥
삦
삧
삨
삩
삪
삫
사
삭
삮
삯
산
삱
삲
삳
살
삵
삶
삷
삸
삹
삺
삻
삼
삽
삾
삿
샀
상
샂
샃
샄
샅
샆
샇
새
색
샊
샋
샌
샍
샎
샏
샐
샑
샒
샓
샔
샕
샖
샗
샘
샙
샚
샛
샜
생
샞
샟
샠
샡
샢
샣
샤
샥
샦
샧
샨
샩
샪
샫
샬
샭
샮
샯
샰
샱
샲
샳
샴
샵
샶
샷
샸
샹
샺
샻
샼
샽
샾
샿
섀
섁
섂
섃
섄
섅
섆
섇
섈
섉
섊
섋
섌
섍
섎
섏
섐
섑
섒
섓
섔
섕
섖
섗
섘
섙
섚
섛
서
석
섞
섟
선
섡
섢
섣
설
섥
섦
섧
섨
섩
섪
섫
섬
섭
섮
섯
섰
성
섲
섳
섴
섵
섶
섷
세
섹
섺
섻
센
섽
섾
섿
셀
셁
셂
셃
셄
셅
셆
셇
셈
셉
셊
셋
셌
셍
셎
셏
셐
셑
셒
셓
셔
셕
셖
셗
션
셙
셚
셛
셜
셝
셞
셟
셠
셡
셢
셣
셤
셥
셦
셧
셨
셩
셪
셫
셬
셭
셮
셯
셰
셱
셲
셳
셴
셵
셶
셷
셸
셹
셺
셻
셼
셽
셾
셿
솀
솁
솂
솃
솄
솅
솆
솇
솈
솉
솊
솋
소
속
솎
솏
손
솑
솒
솓
솔
솕
솖
솗
솘
솙
솚
솛
솜
솝
솞
솟
솠
송
솢
솣
솤
솥
솦
솧
솨
솩
솪
솫
솬
솭
솮
솯
솰
솱
솲
솳
솴
솵
솶
솷
솸
솹
솺
솻
솼
솽
솾
솿
쇀
쇁
쇂
쇃
쇄
쇅
쇆
쇇
쇈
쇉
쇊
쇋
쇌
쇍
쇎
쇏
쇐
쇑
쇒
쇓
쇔
쇕
쇖
쇗
쇘
쇙
쇚
쇛
쇜
쇝
쇞
쇟
쇠
쇡
쇢
쇣
쇤
쇥
쇦
쇧
쇨
쇩
쇪
쇫
쇬
쇭
쇮
쇯
쇰
쇱
쇲
쇳
쇴
쇵
쇶
쇷
쇸
쇹
쇺
쇻
쇼
쇽
쇾
쇿
숀
숁
숂
숃
숄
숅
숆
숇
숈
숉
숊
숋
숌
숍
숎
숏
숐
숑
숒
숓
숔
숕
숖
숗
수
숙
숚
숛
순
숝
숞
숟
술
숡
숢
숣
숤
숥
숦
숧
숨
숩
숪
숫
숬
숭
숮
숯
숰
숱
숲
숳
숴
숵
숶
숷
숸
숹
숺
숻
숼
숽
숾
숿
쉀
쉁
쉂
쉃
쉄
쉅
쉆
쉇
쉈
쉉
쉊
쉋
쉌
쉍
쉎
쉏
쉐
쉑
쉒
쉓
쉔
쉕
쉖
쉗
쉘
쉙
쉚
쉛
쉜
쉝
쉞
쉟
쉠
쉡
쉢
쉣
쉤
쉥
쉦
쉧
쉨
쉩
쉪
쉫
쉬
쉭
쉮
쉯
쉰
쉱
쉲
쉳
쉴
쉵
쉶
쉷
쉸
쉹
쉺
쉻
쉼
쉽
쉾
쉿
슀
슁
슂
슃
슄
슅
슆
슇
슈
슉
슊
슋
슌
슍
슎
슏
슐
슑
슒
슓
슔
슕
슖
슗
슘
슙
슚
슛
슜
슝
슞
슟
슠
슡
슢
슣
스
슥
슦
슧
슨
슩
슪
슫
슬
슭
슮
슯
슰
슱
슲
슳
슴
습
슶
슷
슸
승
슺
슻
슼
슽
슾
슿
싀
싁
싂
싃
싄
싅
싆
싇
싈
싉
싊
싋
싌
싍
싎
싏
싐
싑
싒
싓
싔
싕
싖
싗
싘
싙
싚
싛
시
식
싞
싟
신
싡
싢
싣
실
싥
싦
싧
싨
싩
싪
싫
심
십
싮
싯
싰
싱
싲
싳
싴
싵
싶
싷
싸
싹
싺
싻
싼
싽
싾
싿
쌀
쌁
쌂
쌃
쌄
쌅
쌆
쌇
쌈
쌉
쌊
쌋
쌌
쌍
쌎
쌏
쌐
쌑
쌒
쌓
쌔
쌕
쌖
쌗
쌘
쌙
쌚
쌛
쌜
쌝
쌞
쌟
쌠
쌡
쌢
쌣
쌤
쌥
쌦
쌧
쌨
쌩
쌪
쌫
쌬
쌭
쌮
쌯
쌰
쌱
쌲
쌳
쌴
쌵
쌶
쌷
쌸
쌹
쌺
쌻
쌼
쌽
쌾
쌿
썀
썁
썂
썃
썄
썅
썆
썇
썈
썉
썊
썋
썌
썍
썎
썏
썐
썑
썒
썓
썔
썕
썖
썗
썘
썙
썚
썛
썜
썝
썞
썟
썠
썡
썢
썣
썤
썥
썦
썧
써
썩
썪
썫
썬
썭
썮
썯
썰
썱
썲
썳
썴
썵
썶
썷
썸
썹
썺
썻
썼
썽
썾
썿
쎀
쎁
쎂
쎃
쎄
쎅
쎆
쎇
쎈
쎉
쎊
쎋
쎌
쎍
쎎
쎏
쎐
쎑
쎒
쎓
쎔
쎕
쎖
쎗
쎘
쎙
쎚
쎛
쎜
쎝
쎞
쎟
쎠
쎡
쎢
쎣
쎤
쎥
쎦
쎧
쎨
쎩
쎪
쎫
쎬
쎭
쎮
쎯
쎰
쎱
쎲
쎳
쎴
쎵
쎶
쎷
쎸
쎹
쎺
쎻
쎼
쎽
쎾
쎿
쏀
쏁
쏂
쏃
쏄
쏅
쏆
쏇
쏈
쏉
쏊
쏋
쏌
쏍
쏎
쏏
쏐
쏑
쏒
쏓
쏔
쏕
쏖
쏗
쏘
쏙
쏚
쏛
쏜
쏝
쏞
쏟
쏠
쏡
쏢
쏣
쏤
쏥
쏦
쏧
쏨
쏩
쏪
쏫
쏬
쏭
쏮
쏯
쏰
쏱
쏲
쏳
쏴
쏵
쏶
쏷
쏸
쏹
쏺
쏻
쏼
쏽
쏾
쏿
쐀
쐁
쐂
쐃
쐄
쐅
쐆
쐇
쐈
쐉
쐊
쐋
쐌
쐍
쐎
쐏
쐐
쐑
쐒
쐓
쐔
쐕
쐖
쐗
쐘
쐙
쐚
쐛
쐜
쐝
쐞
쐟
쐠
쐡
쐢
쐣
쐤
쐥
쐦
쐧
쐨
쐩
쐪
쐫
쐬
쐭
쐮
쐯
쐰
쐱
쐲
쐳
쐴
쐵
쐶
쐷
쐸
쐹
쐺
쐻
쐼
쐽
쐾
쐿
쑀
쑁
쑂
쑃
쑄
쑅
쑆
쑇
쑈
쑉
쑊
쑋
쑌
쑍
쑎
쑏
쑐
쑑
쑒
쑓
쑔
쑕
쑖
쑗
쑘
쑙
쑚
쑛
쑜
쑝
쑞
쑟
쑠
쑡
쑢
쑣
쑤
쑥
쑦
쑧
쑨
쑩
쑪
쑫
쑬
쑭
쑮
쑯
쑰
쑱
쑲
쑳
쑴
쑵
쑶
쑷
쑸
쑹
쑺
쑻
쑼
쑽
쑾
쑿
쒀
쒁
쒂
쒃
쒄
쒅
쒆
쒇
쒈
쒉
쒊
쒋
쒌
쒍
쒎
쒏
쒐
쒑
쒒
쒓
쒔
쒕
쒖
쒗
쒘
쒙
쒚
쒛
쒜
쒝
쒞
쒟
쒠
쒡
쒢
쒣
쒤
쒥
쒦
쒧
쒨
쒩
쒪
쒫
쒬
쒭
쒮
쒯
쒰
쒱
쒲
쒳
쒴
쒵
쒶
쒷
쒸
쒹
쒺
쒻
쒼
쒽
쒾
쒿
쓀
쓁
쓂
쓃
쓄
쓅
쓆
쓇
쓈
쓉
쓊
쓋
쓌
쓍
쓎
쓏
쓐
쓑
쓒
쓓
쓔
쓕
쓖
쓗
쓘
쓙
쓚
쓛
쓜
쓝
쓞
쓟
쓠
쓡
쓢
쓣
쓤
쓥
쓦
쓧
쓨
쓩
쓪
쓫
쓬
쓭
쓮
쓯
쓰
쓱
쓲
쓳
쓴
쓵
쓶
쓷
쓸
쓹
쓺
쓻
쓼
쓽
쓾
쓿
씀
씁
씂
씃
씄
씅
씆
씇
씈
씉
씊
씋
씌
씍
씎
씏
씐
씑
씒
씓
씔
씕
씖
씗
씘
씙
씚
씛
씜
씝
씞
씟
씠
씡
씢
씣
씤
씥
씦
씧
씨
씩
씪
씫
씬
씭
씮
씯
씰
씱
씲
씳
씴
씵
씶
씷
씸
씹
씺
씻
씼
씽
씾
씿
앀
앁
앂
앃
아
악
앆
앇
안
앉
않
앋
알
앍
앎
앏
앐
앑
앒
앓
암
압
앖
앗
았
앙
앚
앛
앜
앝
앞
앟
애
액
앢
앣
앤
앥
앦
앧
앨
앩
앪
앫
앬
앭
앮
앯
앰
앱
앲
앳
앴
앵
앶
앷
앸
앹
앺
앻
야
약
앾
앿
얀
얁
얂
얃
얄
얅
얆
얇
얈
얉
얊
얋
얌
얍
얎
얏
얐
양
얒
얓
얔
얕
얖
얗
얘
얙
얚
얛
얜
얝
얞
얟
얠
얡
얢
얣
얤
얥
얦
얧
얨
얩
얪
얫
얬
얭
얮
얯
얰
얱
얲
얳
어
억
얶
얷
언
얹
얺
얻
얼
얽
얾
얿
엀
엁
엂
엃
엄
업
없
엇
었
엉
엊
엋
엌
엍
엎
엏
에
엑
엒
엓
엔
엕
엖
엗
엘
엙
엚
엛
엜
엝
엞
엟
엠
엡
엢
엣
엤
엥
엦
엧
엨
엩
엪
엫
여
역
엮
엯
연
엱
엲
엳
열
엵
엶
엷
엸
엹
엺
엻
염
엽
엾
엿
였
영
옂
옃
옄
옅
옆
옇
예
옉
옊
옋
옌
옍
옎
옏
옐
옑
옒
옓
옔
옕
옖
옗
옘
옙
옚
옛
옜
옝
옞
옟
옠
옡
옢
옣
오
옥
옦
옧
온
옩
옪
옫
올
옭
옮
옯
옰
옱
옲
옳
옴
옵
옶
옷
옸
옹
옺
옻
옼
옽
옾
옿
와
왁
왂
왃
완
왅
왆
왇
왈
왉
왊
왋
왌
왍
왎
왏
왐
왑
왒
왓
왔
왕
왖
왗
왘
왙
왚
왛
왜
왝
왞
왟
왠
왡
왢
왣
왤
왥
왦
왧
왨
왩
왪
왫
왬
왭
왮
왯
왰
왱
왲
왳
왴
왵
왶
왷
외
왹
왺
왻
왼
왽
왾
왿
욀
욁
욂
욃
욄
욅
욆
욇
욈
욉
욊
욋
욌
욍
욎
욏
욐
욑
욒
욓
요
욕
욖
욗
욘
욙
욚
욛
욜
욝
욞
욟
욠
욡
욢
욣
욤
욥
욦
욧
욨
용
욪
욫
욬
욭
욮
욯
우
욱
욲
욳
운
욵
욶
욷
울
욹
욺
욻
욼
욽
욾
욿
움
웁
웂
웃
웄
웅
웆
웇
웈
웉
웊
웋
워
웍
웎
웏
원
웑
웒
웓
월
웕
웖
웗
웘
웙
웚
웛
웜
웝
웞
웟
웠
웡
웢
웣
웤
웥
웦
웧
웨
웩
웪
웫
웬
웭
웮
웯
웰
웱
웲
웳
웴
웵
웶
웷
웸
웹
웺
웻
웼
웽
웾
웿
윀
윁
윂
윃
위
윅
윆
윇
윈
윉
윊
윋
윌
윍
윎
윏
윐
윑
윒
윓
윔
윕
윖
윗
윘
윙
윚
윛
윜
윝
윞
윟
유
육
윢
윣
윤
윥
윦
윧
율
윩
윪
윫
윬
윭
윮
윯
윰
윱
윲
윳
윴
융
윶
윷
윸
윹
윺
윻
으
윽
윾
윿
은
읁
읂
읃
을
읅
읆
읇
읈
읉
읊
읋
음
읍
읎
읏
읐
응
읒
읓
읔
읕
읖
읗
의
읙
읚
읛
읜
읝
읞
읟
읠
읡
읢
읣
읤
읥
읦
읧
읨
읩
읪
읫
읬
읭
읮
읯
읰
읱
읲
읳
이
익
읶
읷
인
읹
읺
읻
일
읽
읾
읿
잀
잁
잂
잃
임
입
잆
잇
있
잉
잊
잋
잌
잍
잎
잏
자
작
잒
잓
잔
잕
잖
잗
잘
잙
잚
잛
잜
잝
잞
잟
잠
잡
잢
잣
잤
장
잦
잧
잨
잩
잪
잫
재
잭
잮
잯
잰
잱
잲
잳
잴
잵
잶
잷
잸
잹
잺
잻
잼
잽
잾
잿
쟀
쟁
쟂
쟃
쟄
쟅
쟆
쟇
쟈
쟉
쟊
쟋
쟌
쟍
쟎
쟏
쟐
쟑
쟒
쟓
쟔
쟕
쟖
쟗
쟘
쟙
쟚
쟛
쟜
쟝
쟞
쟟
쟠
쟡
쟢
쟣
쟤
쟥
쟦
쟧
쟨
쟩
쟪
쟫
쟬
쟭
쟮
쟯
쟰
쟱
쟲
쟳
쟴
쟵
쟶
쟷
쟸
쟹
쟺
쟻
쟼
쟽
쟾
쟿
저
적
젂
젃
전
젅
젆
젇
절
젉
젊
젋
젌
젍
젎
젏
점
접
젒
젓
젔
정
젖
젗
젘
젙
젚
젛
제
젝
젞
젟
젠
젡
젢
젣
젤
젥
젦
젧
젨
젩
젪
젫
젬
젭
젮
젯
젰
젱
젲
젳
젴
젵
젶
젷
져
젹
젺
젻
젼
젽
젾
젿
졀
졁
졂
졃
졄
졅
졆
졇
졈
졉
졊
졋
졌
졍
졎
졏
졐
졑
졒
졓
졔
졕
졖
졗
졘
졙
졚
졛
졜
졝
졞
졟
졠
졡
졢
졣
졤
졥
졦
졧
졨
졩
졪
졫
졬
졭
졮
졯
조
족
졲
졳
존
졵
졶
졷
졸
졹
졺
졻
졼
졽
졾
졿
좀
좁
좂
좃
좄
종
좆
좇
좈
좉
좊
좋
좌
좍
좎
좏
좐
좑
좒
좓
좔
좕
좖
좗
좘
좙
좚
좛
좜
좝
좞
좟
좠
좡
좢
좣
좤
좥
좦
좧
좨
좩
좪
좫
좬
좭
좮
좯
좰
좱
좲
좳
좴
좵
좶
좷
좸
좹
좺
좻
좼
좽
좾
좿
죀
죁
죂
죃
죄
죅
죆
죇
죈
죉
죊
죋
죌
죍
죎
죏
죐
죑
죒
죓
죔
죕
죖
죗
죘
죙
죚
죛
죜
죝
죞
죟
죠
죡
죢
죣
죤
죥
죦
죧
죨
죩
죪
죫
죬
죭
죮
죯
죰
죱
죲
죳
죴
죵
죶
죷
죸
죹
죺
죻
주
죽
죾
죿
준
줁
줂
줃
줄
줅
줆
줇
줈
줉
줊
줋
줌
줍
줎
줏
줐
중
줒
줓
줔
줕
줖
줗
줘
줙
줚
줛
줜
줝
줞
줟
줠
줡
줢
줣
줤
줥
줦
줧
줨
줩
줪
줫
줬
줭
줮
줯
줰
줱
줲
줳
줴
줵
줶
줷
줸
줹
줺
줻
줼
줽
줾
줿
쥀
쥁
쥂
쥃
쥄
쥅
쥆
쥇
쥈
쥉
쥊
쥋
쥌
쥍
쥎
쥏
쥐
쥑
쥒
쥓
쥔
쥕
쥖
쥗
쥘
쥙
쥚
쥛
쥜
쥝
쥞
쥟
쥠
쥡
쥢
쥣
쥤
쥥
쥦
쥧
쥨
쥩
쥪
쥫
쥬
쥭
쥮
쥯
쥰
쥱
쥲
쥳
쥴
쥵
쥶
쥷
쥸
쥹
쥺
쥻
쥼
쥽
쥾
쥿
즀
즁
즂
즃
즄
즅
즆
즇
즈
즉
즊
즋
즌
즍
즎
즏
즐
즑
즒
즓
즔
즕
즖
즗
즘
즙
즚
즛
즜
증
즞
즟
즠
즡
즢
즣
즤
즥
즦
즧
즨
즩
즪
즫
즬
즭
즮
즯
즰
즱
즲
즳
즴
즵
즶
즷
즸
즹
즺
즻
즼
즽
즾
즿
지
직
짂
짃
진
짅
짆
짇
질
짉
짊
짋
짌
짍
짎
짏
짐
집
짒
짓
짔
징
짖
짗
짘
짙
짚
짛
짜
짝
짞
짟
짠
짡
짢
짣
짤
짥
짦
짧
짨
짩
짪
짫
짬
짭
짮
짯
짰
짱
짲
짳
짴
짵
짶
짷
째
짹
짺
짻
짼
짽
짾
짿
쨀
쨁
쨂
쨃
쨄
쨅
쨆
쨇
쨈
쨉
쨊
쨋
쨌
쨍
쨎
쨏
쨐
쨑
쨒
쨓
쨔
쨕
쨖
쨗
쨘
쨙
쨚
쨛
쨜
쨝
쨞
쨟
쨠
쨡
쨢
쨣
쨤
쨥
쨦
쨧
쨨
쨩
쨪
쨫
쨬
쨭
쨮
쨯
쨰
쨱
쨲
쨳
쨴
쨵
쨶
쨷
쨸
쨹
쨺
쨻
쨼
쨽
쨾
쨿
쩀
쩁
쩂
쩃
쩄
쩅
쩆
쩇
쩈
쩉
쩊
쩋
쩌
쩍
쩎
쩏
쩐
쩑
쩒
쩓
쩔
쩕
쩖
쩗
쩘
쩙
쩚
쩛
쩜
쩝
쩞
쩟
쩠
쩡
쩢
쩣
쩤
쩥
쩦
쩧
쩨
쩩
쩪
쩫
쩬
쩭
쩮
쩯
쩰
쩱
쩲
쩳
쩴
쩵
쩶
쩷
쩸
쩹
쩺
쩻
쩼
쩽
쩾
쩿
쪀
쪁
쪂
쪃
쪄
쪅
쪆
쪇
쪈
쪉
쪊
쪋
쪌
쪍
쪎
쪏
쪐
쪑
쪒
쪓
쪔
쪕
쪖
쪗
쪘
쪙
쪚
쪛
쪜
쪝
쪞
쪟
쪠
쪡
쪢
쪣
쪤
쪥
쪦
쪧
쪨
쪩
쪪
쪫
쪬
쪭
쪮
쪯
쪰
쪱
쪲
쪳
쪴
쪵
쪶
쪷
쪸
쪹
쪺
쪻
쪼
쪽
쪾
쪿
쫀
쫁
쫂
쫃
쫄
쫅
쫆
쫇
쫈
쫉
쫊
쫋
쫌
쫍
쫎
쫏
쫐
쫑
쫒
쫓
쫔
쫕
쫖
쫗
쫘
쫙
쫚
쫛
쫜
쫝
쫞
쫟
쫠
쫡
쫢
쫣
쫤
쫥
쫦
쫧
쫨
쫩
쫪
쫫
쫬
쫭
쫮
쫯
쫰
쫱
쫲
쫳
쫴
쫵
쫶
쫷
쫸
쫹
쫺
쫻
쫼
쫽
쫾
쫿
쬀
쬁
쬂
쬃
쬄
쬅
쬆
쬇
쬈
쬉
쬊
쬋
쬌
쬍
쬎
쬏
쬐
쬑
쬒
쬓
쬔
쬕
쬖
쬗
쬘
쬙
쬚
쬛
쬜
쬝
쬞
쬟
쬠
쬡
쬢
쬣
쬤
쬥
쬦
쬧
쬨
쬩
쬪
쬫
쬬
쬭
쬮
쬯
쬰
쬱
쬲
쬳
쬴
쬵
쬶
쬷
쬸
쬹
쬺
쬻
쬼
쬽
쬾
쬿
쭀
쭁
쭂
쭃
쭄
쭅
쭆
쭇
쭈
쭉
쭊
쭋
쭌
쭍
쭎
쭏
쭐
쭑
쭒
쭓
쭔
쭕
쭖
쭗
쭘
쭙
쭚
쭛
쭜
쭝
쭞
쭟
쭠
쭡
쭢
쭣
쭤
쭥
쭦
쭧
쭨
쭩
쭪
쭫
쭬
쭭
쭮
쭯
쭰
쭱
쭲
쭳
쭴
쭵
쭶
쭷
쭸
쭹
쭺
쭻
쭼
쭽
쭾
쭿
쮀
쮁
쮂
쮃
쮄
쮅
쮆
쮇
쮈
쮉
쮊
쮋
쮌
쮍
쮎
쮏
쮐
쮑
쮒
쮓
쮔
쮕
쮖
쮗
쮘
쮙
쮚
쮛
쮜
쮝
쮞
쮟
쮠
쮡
쮢
쮣
쮤
쮥
쮦
쮧
쮨
쮩
쮪
쮫
쮬
쮭
쮮
쮯
쮰
쮱
쮲
쮳
쮴
쮵
쮶
쮷
쮸
쮹
쮺
쮻
쮼
쮽
쮾
쮿
쯀
쯁
쯂
쯃
쯄
쯅
쯆
쯇
쯈
쯉
쯊
쯋
쯌
쯍
쯎
쯏
쯐
쯑
쯒
쯓
쯔
쯕
쯖
쯗
쯘
쯙
쯚
쯛
쯜
쯝
쯞
쯟
쯠
쯡
쯢
쯣
쯤
쯥
쯦
쯧
쯨
쯩
쯪
쯫
쯬
쯭
쯮
쯯
쯰
쯱
쯲
쯳
쯴
쯵
쯶
쯷
쯸
쯹
쯺
쯻
쯼
쯽
쯾
쯿
찀
찁
찂
찃
찄
찅
찆
찇
찈
찉
찊
찋
찌
찍
찎
찏
찐
찑
찒
찓
찔
찕
찖
찗
찘
찙
찚
찛
찜
찝
찞
찟
찠
찡
찢
찣
찤
찥
찦
찧
차
착
찪
찫
찬
찭
찮
찯
찰
찱
찲
찳
찴
찵
찶
찷
참
찹
찺
찻
찼
창
찾
찿
챀
챁
챂
챃
채
책
챆
챇
챈
챉
챊
챋
챌
챍
챎
챏
챐
챑
챒
챓
챔
챕
챖
챗
챘
챙
챚
챛
챜
챝
챞
챟
챠
챡
챢
챣
챤
챥
챦
챧
챨
챩
챪
챫
챬
챭
챮
챯
챰
챱
챲
챳
챴
챵
챶
챷
챸
챹
챺
챻
챼
챽
챾
챿
첀
첁
첂
첃
첄
첅
첆
첇
첈
첉
첊
첋
첌
첍
첎
첏
첐
첑
첒
첓
첔
첕
첖
첗
처
척
첚
첛
천
첝
첞
첟
철
첡
첢
첣
첤
첥
첦
첧
첨
첩
첪
첫
첬
청
첮
첯
첰
첱
첲
첳
체
첵
첶
첷
첸
첹
첺
첻
첼
첽
첾
첿
쳀
쳁
쳂
쳃
쳄
쳅
쳆
쳇
쳈
쳉
쳊
쳋
쳌
쳍
쳎
쳏
쳐
쳑
쳒
쳓
쳔
쳕
쳖
쳗
쳘
쳙
쳚
쳛
쳜
쳝
쳞
쳟
쳠
쳡
쳢
쳣
쳤
쳥
쳦
쳧
쳨
쳩
쳪
쳫
쳬
쳭
쳮
쳯
쳰
쳱
쳲
쳳
쳴
쳵
쳶
쳷
쳸
쳹
쳺
쳻
쳼
쳽
쳾
쳿
촀
촁
촂
촃
촄
촅
촆
촇
초
촉
촊
촋
촌
촍
촎
촏
촐
촑
촒
촓
촔
촕
촖
촗
촘
촙
촚
촛
촜
총
촞
촟
촠
촡
촢
촣
촤
촥
촦
촧
촨
촩
촪
촫
촬
촭
촮
촯
촰
촱
촲
촳
촴
촵
촶
촷
촸
촹
촺
촻
촼
촽
촾
촿
쵀
쵁
쵂
쵃
쵄
쵅
쵆
쵇
쵈
쵉
쵊
쵋
쵌
쵍
쵎
쵏
쵐
쵑
쵒
쵓
쵔
쵕
쵖
쵗
쵘
쵙
쵚
쵛
최
쵝
쵞
쵟
쵠
쵡
쵢
쵣
쵤
쵥
쵦
쵧
쵨
쵩
쵪
쵫
쵬
쵭
쵮
쵯
쵰
쵱
쵲
쵳
쵴
쵵
쵶
쵷
쵸
쵹
쵺
쵻
쵼
쵽
쵾
쵿
춀
춁
춂
춃
춄
춅
춆
춇
춈
춉
춊
춋
춌
춍
춎
춏
춐
춑
춒
춓
추
축
춖
춗
춘
춙
춚
춛
출
춝
춞
춟
춠
춡
춢
춣
춤
춥
춦
춧
춨
충
춪
춫
춬
춭
춮
춯
춰
춱
춲
춳
춴
춵
춶
춷
춸
춹
춺
춻
춼
춽
춾
춿
췀
췁
췂
췃
췄
췅
췆
췇
췈
췉
췊
췋
췌
췍
췎
췏
췐
췑
췒
췓
췔
췕
췖
췗
췘
췙
췚
췛
췜
췝
췞
췟
췠
췡
췢
췣
췤
췥
췦
췧
취
췩
췪
췫
췬
췭
췮
췯
췰
췱
췲
췳
췴
췵
췶
췷
췸
췹
췺
췻
췼
췽
췾
췿
츀
츁
츂
츃
츄
츅
츆
츇
츈
츉
츊
츋
츌
츍
츎
츏
츐
츑
츒
츓
츔
츕
츖
츗
츘
츙
츚
츛
츜
츝
츞
츟
츠
측
츢
츣
츤
츥
츦
츧
츨
츩
츪
츫
츬
츭
츮
츯
츰
츱
츲
츳
츴
층
츶
츷
츸
츹
츺
츻
츼
츽
츾
츿
칀
칁
칂
칃
칄
칅
칆
칇
칈
칉
칊
칋
칌
칍
칎
칏
칐
칑
칒
칓
칔
칕
칖
칗
치
칙
칚
칛
친
칝
칞
칟
칠
칡
칢
칣
칤
칥
칦
칧
침
칩
칪
칫
칬
칭
칮
칯
칰
칱
칲
칳
카
칵
칶
칷
칸
칹
칺
칻
칼
칽
칾
칿
캀
캁
캂
캃
캄
캅
캆
캇
캈
캉
캊
캋
캌
캍
캎
캏
캐
캑
캒
캓
캔
캕
캖
캗
캘
캙
캚
캛
캜
캝
캞
캟
캠
캡
캢
캣
캤
캥
캦
캧
캨
캩
캪
캫
캬
캭
캮
캯
캰
캱
캲
캳
캴
캵
캶
캷
캸
캹
캺
캻
캼
캽
캾
캿
컀
컁
컂
컃
컄
컅
컆
컇
컈
컉
컊
컋
컌
컍
컎
컏
컐
컑
컒
컓
컔
컕
컖
컗
컘
컙
컚
컛
컜
컝
컞
컟
컠
컡
컢
컣
커
컥
컦
컧
컨
컩
컪
컫
컬
컭
컮
컯
컰
컱
컲
컳
컴
컵
컶
컷
컸
컹
컺
컻
컼
컽
컾
컿
케
켁
켂
켃
켄
켅
켆
켇
켈
켉
켊
켋
켌
켍
켎
켏
켐
켑
켒
켓
켔
켕
켖
켗
켘
켙
켚
켛
켜
켝
켞
켟
켠
켡
켢
켣
켤
켥
켦
켧
켨
켩
켪
켫
켬
켭
켮
켯
켰
켱
켲
켳
켴
켵
켶
켷
켸
켹
켺
켻
켼
켽
켾
켿
콀
콁
콂
콃
콄
콅
콆
콇
콈
콉
콊
콋
콌
콍
콎
콏
콐
콑
콒
콓
코
콕
콖
콗
콘
콙
콚
콛
콜
콝
콞
콟
콠
콡
콢
콣
콤
콥
콦
콧
콨
콩
콪
콫
콬
콭
콮
콯
콰
콱
콲
콳
콴
콵
콶
콷
콸
콹
콺
콻
콼
콽
콾
콿
쾀
쾁
쾂
쾃
쾄
쾅
쾆
쾇
쾈
쾉
쾊
쾋
쾌
쾍
쾎
쾏
쾐
쾑
쾒
쾓
쾔
쾕
쾖
쾗
쾘
쾙
쾚
쾛
쾜
쾝
쾞
쾟
쾠
쾡
쾢
쾣
쾤
쾥
쾦
쾧
쾨
쾩
쾪
쾫
쾬
쾭
쾮
쾯
쾰
쾱
쾲
쾳
쾴
쾵
쾶
쾷
쾸
쾹
쾺
쾻
쾼
쾽
쾾
쾿
쿀
쿁
쿂
쿃
쿄
쿅
쿆
쿇
쿈
쿉
쿊
쿋
쿌
쿍
쿎
쿏
쿐
쿑
쿒
쿓
쿔
쿕
쿖
쿗
쿘
쿙
쿚
쿛
쿜
쿝
쿞
쿟
쿠
쿡
쿢
쿣
쿤
쿥
쿦
쿧
쿨
쿩
쿪
쿫
쿬
쿭
쿮
쿯
쿰
쿱
쿲
쿳
쿴
쿵
쿶
쿷
쿸
쿹
쿺
쿻
쿼
쿽
쿾
쿿
퀀
퀁
퀂
퀃
퀄
퀅
퀆
퀇
퀈
퀉
퀊
퀋
퀌
퀍
퀎
퀏
퀐
퀑
퀒
퀓
퀔
퀕
퀖
퀗
퀘
퀙
퀚
퀛
퀜
퀝
퀞
퀟
퀠
퀡
퀢
퀣
퀤
퀥
퀦
퀧
퀨
퀩
퀪
퀫
퀬
퀭
퀮
퀯
퀰
퀱
퀲
퀳
퀴
퀵
퀶
퀷
퀸
퀹
퀺
퀻
퀼
퀽
퀾
퀿
큀
큁
큂
큃
큄
큅
큆
큇
큈
큉
큊
큋
큌
큍
큎
큏
큐
큑
큒
큓
큔
큕
큖
큗
큘
큙
큚
큛
큜
큝
큞
큟
큠
큡
큢
큣
큤
큥
큦
큧
큨
큩
큪
큫
크
큭
큮
큯
큰
큱
큲
큳
클
큵
큶
큷
큸
큹
큺
큻
큼
큽
큾
큿
킀
킁
킂
킃
킄
킅
킆
킇
킈
킉
킊
킋
킌
킍
킎
킏
킐
킑
킒
킓
킔
킕
킖
킗
킘
킙
킚
킛
킜
킝
킞
킟
킠
킡
킢
킣
키
킥
킦
킧
킨
킩
킪
킫
킬
킭
킮
킯
킰
킱
킲
킳
킴
킵
킶
킷
킸
킹
킺
킻
킼
킽
킾
킿
타
탁
탂
탃
탄
탅
탆
탇
탈
탉
탊
탋
탌
탍
탎
탏
탐
탑
탒
탓
탔
탕
탖
탗
탘
탙
탚
탛
태
택
탞
탟
탠
탡
탢
탣
탤
탥
탦
탧
탨
탩
탪
탫
탬
탭
탮
탯
탰
탱
탲
탳
탴
탵
탶
탷
탸
탹
탺
탻
탼
탽
탾
탿
턀
턁
턂
턃
턄
턅
턆
턇
턈
턉
턊
턋
턌
턍
턎
턏
턐
턑
턒
턓
턔
턕
턖
턗
턘
턙
턚
턛
턜
턝
턞
턟
턠
턡
턢
턣
턤
턥
턦
턧
턨
턩
턪
턫
턬
턭
턮
턯
터
턱
턲
턳
턴
턵
턶
턷
털
턹
턺
턻
턼
턽
턾
턿
텀
텁
텂
텃
텄
텅
텆
텇
텈
텉
텊
텋
테
텍
텎
텏
텐
텑
텒
텓
텔
텕
텖
텗
텘
텙
텚
텛
템
텝
텞
텟
텠
텡
텢
텣
텤
텥
텦
텧
텨
텩
텪
텫
텬
텭
텮
텯
텰
텱
텲
텳
텴
텵
텶
텷
텸
텹
텺
텻
텼
텽
텾
텿
톀
톁
톂
톃
톄
톅
톆
톇
톈
톉
톊
톋
톌
톍
톎
톏
톐
톑
톒
톓
톔
톕
톖
톗
톘
톙
톚
톛
톜
톝
톞
톟
토
톡
톢
톣
톤
톥
톦
톧
톨
톩
톪
톫
톬
톭
톮
톯
톰
톱
톲
톳
톴
통
톶
톷
톸
톹
톺
톻
톼
톽
톾
톿
퇀
퇁
퇂
퇃
퇄
퇅
퇆
퇇
퇈
퇉
퇊
퇋
퇌
퇍
퇎
퇏
퇐
퇑
퇒
퇓
퇔
퇕
퇖
퇗
퇘
퇙
퇚
퇛
퇜
퇝
퇞
퇟
퇠
퇡
퇢
퇣
퇤
퇥
퇦
퇧
퇨
퇩
퇪
퇫
퇬
퇭
퇮
퇯
퇰
퇱
퇲
퇳
퇴
퇵
퇶
퇷
퇸
퇹
퇺
퇻
퇼
퇽
퇾
퇿
툀
툁
툂
툃
툄
툅
툆
툇
툈
툉
툊
툋
툌
툍
툎
툏
툐
툑
툒
툓
툔
툕
툖
툗
툘
툙
툚
툛
툜
툝
툞
툟
툠
툡
툢
툣
툤
툥
툦
툧
툨
툩
툪
툫
투
툭
툮
툯
툰
툱
툲
툳
툴
툵
툶
툷
툸
툹
툺
툻
툼
툽
툾
툿
퉀
퉁
퉂
퉃
퉄
퉅
퉆
퉇
퉈
퉉
퉊
퉋
퉌
퉍
퉎
퉏
퉐
퉑
퉒
퉓
퉔
퉕
퉖
퉗
퉘
퉙
퉚
퉛
퉜
퉝
퉞
퉟
퉠
퉡
퉢
퉣
퉤
퉥
퉦
퉧
퉨
퉩
퉪
퉫
퉬
퉭
퉮
퉯
퉰
퉱
퉲
퉳
퉴
퉵
퉶
퉷
퉸
퉹
퉺
퉻
퉼
퉽
퉾
퉿
튀
튁
튂
튃
튄
튅
튆
튇
튈
튉
튊
튋
튌
튍
튎
튏
튐
튑
튒
튓
튔
튕
튖
튗
튘
튙
튚
튛
튜
튝
튞
튟
튠
튡
튢
튣
튤
튥
튦
튧
튨
튩
튪
튫
튬
튭
튮
튯
튰
튱
튲
튳
튴
튵
튶
튷
트
특
튺
튻
튼
튽
튾
튿
틀
틁
틂
틃
틄
틅
틆
틇
틈
틉
틊
틋
틌
틍
틎
틏
틐
틑
틒
틓
틔
틕
틖
틗
틘
틙
틚
틛
틜
틝
틞
틟
틠
틡
틢
틣
틤
틥
틦
틧
틨
틩
틪
틫
틬
틭
틮
틯
티
틱
틲
틳
틴
틵
틶
틷
틸
틹
틺
틻
틼
틽
틾
틿
팀
팁
팂
팃
팄
팅
팆
팇
팈
팉
팊
팋
파
팍
팎
팏
판
팑
팒
팓
팔
팕
팖
팗
팘
팙
팚
팛
팜
팝
팞
팟
팠
팡
팢
팣
팤
팥
팦
팧
패
팩
팪
팫
팬
팭
팮
팯
팰
팱
팲
팳
팴
팵
팶
팷
팸
팹
팺
팻
팼
팽
팾
팿
퍀
퍁
퍂
퍃
퍄
퍅
퍆
퍇
퍈
퍉
퍊
퍋
퍌
퍍
퍎
퍏
퍐
퍑
퍒
퍓
퍔
퍕
퍖
퍗
퍘
퍙
퍚
퍛
퍜
퍝
퍞
퍟
퍠
퍡
퍢
퍣
퍤
퍥
퍦
퍧
퍨
퍩
퍪
퍫
퍬
퍭
퍮
퍯
퍰
퍱
퍲
퍳
퍴
퍵
퍶
퍷
퍸
퍹
퍺
퍻
퍼
퍽
퍾
퍿
펀
펁
펂
펃
펄
펅
펆
펇
펈
펉
펊
펋
펌
펍
펎
펏
펐
펑
펒
펓
펔
펕
펖
펗
페
펙
펚
펛
펜
펝
펞
펟
펠
펡
펢
펣
펤
펥
펦
펧
펨
펩
펪
펫
펬
펭
펮
펯
펰
펱
펲
펳
펴
펵
펶
펷
편
펹
펺
펻
펼
펽
펾
펿
폀
폁
폂
폃
폄
폅
폆
폇
폈
평
폊
폋
폌
폍
폎
폏
폐
폑
폒
폓
폔
폕
폖
폗
폘
폙
폚
폛
폜
폝
폞
폟
폠
폡
폢
폣
폤
폥
폦
폧
폨
폩
폪
폫
포
폭
폮
폯
폰
폱
폲
폳
폴
폵
폶
폷
폸
폹
폺
폻
폼
폽
폾
폿
퐀
퐁
퐂
퐃
퐄
퐅
퐆
퐇
퐈
퐉
퐊
퐋
퐌
퐍
퐎
퐏
퐐
퐑
퐒
퐓
퐔
퐕
퐖
퐗
퐘
퐙
퐚
퐛
퐜
퐝
퐞
퐟
퐠
퐡
퐢
퐣
퐤
퐥
퐦
퐧
퐨
퐩
퐪
퐫
퐬
퐭
퐮
퐯
퐰
퐱
퐲
퐳
퐴
퐵
퐶
퐷
퐸
퐹
퐺
퐻
퐼
퐽
퐾
퐿
푀
푁
푂
푃
푄
푅
푆
푇
푈
푉
푊
푋
푌
푍
푎
푏
푐
푑
푒
푓
푔
푕
푖
푗
푘
푙
푚
푛
표
푝
푞
푟
푠
푡
푢
푣
푤
푥
푦
푧
푨
푩
푪
푫
푬
푭
푮
푯
푰
푱
푲
푳
푴
푵
푶
푷
푸
푹
푺
푻
푼
푽
푾
푿
풀
풁
풂
풃
풄
풅
풆
풇
품
풉
풊
풋
풌
풍
풎
풏
풐
풑
풒
풓
풔
풕
풖
풗
풘
풙
풚
풛
풜
풝
풞
풟
풠
풡
풢
풣
풤
풥
풦
풧
풨
풩
풪
풫
풬
풭
풮
풯
풰
풱
풲
풳
풴
풵
풶
풷
풸
풹
풺
풻
풼
풽
풾
풿
퓀
퓁
퓂
퓃
퓄
퓅
퓆
퓇
퓈
퓉
퓊
퓋
퓌
퓍
퓎
퓏
퓐
퓑
퓒
퓓
퓔
퓕
퓖
퓗
퓘
퓙
퓚
퓛
퓜
퓝
퓞
퓟
퓠
퓡
퓢
퓣
퓤
퓥
퓦
퓧
퓨
퓩
퓪
퓫
퓬
퓭
퓮
퓯
퓰
퓱
퓲
퓳
퓴
퓵
퓶
퓷
퓸
퓹
퓺
퓻
퓼
퓽
퓾
퓿
픀
픁
픂
픃
프
픅
픆
픇
픈
픉
픊
픋
플
픍
픎
픏
픐
픑
픒
픓
픔
픕
픖
픗
픘
픙
픚
픛
픜
픝
픞
픟
픠
픡
픢
픣
픤
픥
픦
픧
픨
픩
픪
픫
픬
픭
픮
픯
픰
픱
픲
픳
픴
픵
픶
픷
픸
픹
픺
픻
피
픽
픾
픿
핀
핁
핂
핃
필
핅
핆
핇
핈
핉
핊
핋
핌
핍
핎
핏
핐
핑
핒
핓
핔
핕
핖
핗
하
학
핚
핛
한
핝
핞
핟
할
핡
핢
핣
핤
핥
핦
핧
함
합
핪
핫
핬
항
핮
핯
핰
핱
핲
핳
해
핵
핶
핷
핸
핹
핺
핻
핼
핽
핾
핿
햀
햁
햂
햃
햄
햅
햆
햇
했
행
햊
햋
햌
햍
햎
햏
햐
햑
햒
햓
햔
햕
햖
햗
햘
햙
햚
햛
햜
햝
햞
햟
햠
햡
햢
햣
햤
향
햦
햧
햨
햩
햪
햫
햬
햭
햮
햯
햰
햱
햲
햳
햴
햵
햶
햷
햸
햹
햺
햻
햼
햽
햾
햿
헀
헁
헂
헃
헄
헅
헆
헇
허
헉
헊
헋
헌
헍
헎
헏
헐
헑
헒
헓
헔
헕
헖
헗
험
헙
헚
헛
헜
헝
헞
헟
헠
헡
헢
헣
헤
헥
헦
헧
헨
헩
헪
헫
헬
헭
헮
헯
헰
헱
헲
헳
헴
헵
헶
헷
헸
헹
헺
헻
헼
헽
헾
헿
혀
혁
혂
혃
현
혅
혆
혇
혈
혉
혊
혋
혌
혍
혎
혏
혐
협
혒
혓
혔
형
혖
혗
혘
혙
혚
혛
혜
혝
혞
혟
혠
혡
혢
혣
혤
혥
혦
혧
혨
혩
혪
혫
혬
혭
혮
혯
혰
혱
혲
혳
혴
혵
혶
혷
호
혹
혺
혻
혼
혽
혾
혿
홀
홁
홂
홃
홄
홅
홆
홇
홈
홉
홊
홋
홌
홍
홎
홏
홐
홑
홒
홓
화
확
홖
홗
환
홙
홚
홛
활
홝
홞
홟
홠
홡
홢
홣
홤
홥
홦
홧
홨
황
홪
홫
홬
홭
홮
홯
홰
홱
홲
홳
홴
홵
홶
홷
홸
홹
홺
홻
홼
홽
홾
홿
횀
횁
횂
횃
횄
횅
횆
횇
횈
횉
횊
횋
회
획
횎
횏
횐
횑
횒
횓
횔
횕
횖
횗
횘
횙
횚
횛
횜
횝
횞
횟
횠
횡
횢
횣
횤
횥
횦
횧
효
횩
횪
횫
횬
횭
횮
횯
횰
횱
횲
횳
횴
횵
횶
횷
횸
횹
횺
횻
횼
횽
횾
횿
훀
훁
훂
훃
후
훅
훆
훇
훈
훉
훊
훋
훌
훍
훎
훏
훐
훑
훒
훓
훔
훕
훖
훗
훘
훙
훚
훛
훜
훝
훞
훟
훠
훡
훢
훣
훤
훥
훦
훧
훨
훩
훪
훫
훬
훭
훮
훯
훰
훱
훲
훳
훴
훵
훶
훷
훸
훹
훺
훻
훼
훽
훾
훿
휀
휁
휂
휃
휄
휅
휆
휇
휈
휉
휊
휋
휌
휍
휎
휏
휐
휑
휒
휓
휔
휕
휖
휗
휘
휙
휚
휛
휜
휝
휞
휟
휠
휡
휢
휣
휤
휥
휦
휧
휨
휩
휪
휫
휬
휭
휮
휯
휰
휱
휲
휳
휴
휵
휶
휷
휸
휹
휺
휻
휼
휽
휾
휿
흀
흁
흂
흃
흄
흅
흆
흇
흈
흉
흊
흋
흌
흍
흎
흏
흐
흑
흒
흓
흔
흕
흖
흗
흘
흙
흚
흛
흜
흝
흞
흟
흠
흡
흢
흣
흤
흥
흦
흧
흨
흩
흪
흫
희
흭
흮
흯
흰
흱
흲
흳
흴
흵
흶
흷
흸
흹
흺
흻
흼
흽
흾
흿
힀
힁
힂
힃
힄
힅
힆
힇
히
힉
힊
힋
힌
힍
힎
힏
힐
힑
힒
힓
힔
힕
힖
힗
힘
힙
힚
힛
힜
힝
힞
힟
힠
힡
힢
힣
##D
##P
##G
##a
##r
##o
##n
##d
##e
##x
##t
##i
##f
##g
##k
##A
##c
##u
##H
##R
##l
##w
##y
##데
##가
##르
##트
##s
##m
##b
##h
##뵈
##천
##리
##z
##로
##방
##아
##눌
##를
##적
##O
##N
##기
##위
##해
##선
##L
##T
##I
##M
##0
##5
##8
##7
##나
##F
##1
##4
##2
##6
##꿍
##이
##히
##다
##균
##상
##품
##과
##3
##9
##모
##전
##을
##때
##B
##S
##p
##C
##X
##준
##원
##뤄
##드
##라
##v
##용
##지
##사
##옥
##E
##K
##창
##권
##질
##양
##수
##식
##클
##북
##역
##불
##고
##딱
##V
##욱
##철
##j
##탈
##근
##치
##묵
##메
##홍
##진
##술
##둇
##둉
##둏
##둗
##둙
##할
##U
##머
##터
##스
##타
##운
##글
##하
##니
##주
##시
##면
##한
##순
##키
##공
##장
##Z
##세
##영
##효
##석
##바
##마
##뽑
##승
##희
##림
##회
##는
##오
##요
##능
##부
##커
##콩
##ᅠ
##졔
##ᄂ
##구
##차
##정
##동
##탓
##저
##덕
##범
##포
##워
##츠
##굿
##Y
##q
##퍄
##법
##와
##웃
##음
##야
##락
##팔
##렐
##W
##거
##박
##령
##의
##춘
##은
##만
##송
##인
##빈
##설
##닉
##례
##칼
##린
##몬
##보
##편
##먹
##쥐
##벤
##일
##망
##대
##안
##흥
##여
##혐
##도
##달
##개
##단
##복
##문
##어
##초
##념
##웅
##호
##피
##톤
##프
##젝
##촢
##노
##찌
##빠
##량
##서
##싱
##햄
##켜
##감
##그
##숙
##무
##코
##종
##중
##똥
##항
##듐
##샹
##현
##쳐
##있
##쿠
##봉
##져
##까
##뼉
##화
##명
##죄
##재
##쉭
##황
##산
##륨
##봐
##비
##엔
##느
##교
##환
##케
##토
##벵
##즈
##온
##실
##듯
##쫀
##옙
##카
##크
##티
##래
##훈
##탄
##람
##직
##잉
##틀
##러
##훼
##려
##J
##캠
##우
##푸
##뉴
##올
##찬
##몽
##유
##록
##님
##퍼
##연
##성
##밋
##자
##작
##론
##신
##슨
##Q
##팅
##에
##평
##총
##곡
##줄
##간
##계
##칠
##애
##웍
##궁
##목
##조
##듀
##곤
##날
##채
##엽
##들
##졌
##추
##테
##살
##녀
##소
##널
##즘
##익
##예
##섭
##폴
##건
##꺼
##풀
##네
##짜
##킹
##덤
##으
##변
##닐
##병
##제
##광
##녜
##페
##년
##매
##체
##란
##룬
##렌
##쪼
##름
##했
##던
##활
##약
##컬
##처
##관
##급
##닌
##렸
##색
##미
##울
##베
##닢
##경
##께
##톈
##당
##갤
##내
##태
##등
##류
##껀
##헌
##혀
##표
##율
##뇨
##혁
##극
##두
##섬
##혹
##규
##척
##청
##납
##팡
##레
##밥
##큐
##엄
##틱
##겨
##너
##득
##임
##쳤
##켈
##맥
##골
##릴
##루
##민
##배
##언
##룸
##윤
##반
##새
##별
##누
##촬
##롄
##었
##행
##몰
##택
##슈
##숍
##립
##낸
##걸
##된
##게
##길
##군
##쯤
##탤
##후
##격
##왔
##며
##캐
##럴
##턴
##겼
##향
##혜
##투
##속
##돌
##탠
##즐
##암
##값
##폭
##학
##왕
##친
##버
##갱
##쪄
##엘
##휘
##염
##물
##측
##꼭
##점
##돈
##롤
##쓰
##탕
##쭷
##쮀
##눈
##증
##벡
##담
##른
##깅
##씨
##몫
##판
##금
##각
##랑
##쭈
##통
##랴
##냉
##국
##흠
##봤
##먼
##늘
##돼
##탬
##획
##뤼
##엑
##발
##냐
##얼
##혼
##룩
##릿
##잠
##심
##축
##뀍
##랭
##업
##틸
##파
##럼
##븖
##력
##삼
##꿈
##움
##럽
##렬
##셔
##퐁
##절
##출
##됍
##템
##될
##힉
##더
##본
##샨
##꾸
##블
##훗
##뿔
##형
##솔
##션
##놀
##튬
##결
##되
##분
##흐
##딘
##쇠
##강
##탱
##닥
##랐
##죽
##응
##붓
##탁
##디
##쌩
##침
##숭
##륵
##따
##충
##탑
##씬
##쿤
##닲
##없
##많
##참
##릇
##둬
##완
##였
##룡
##갑
##둥
##픽
##읍
##풍
##접
##땁
##갰
##잔
##밧
##든
##잘
##뜨
##낵
##떠
##랙
##존
##링
##텐
##낀
##빤
##붉
##텨
##째
##묘
##렉
##잇
##빙
##잡
##짝
##남
##팬
##컴
##플
##센
##벌
##겋
##갈
##웰
##난
##필
##손
##백
##쎄
##겔
##줬
##녕
##악
##쟁
##둑
##촌
##롱
##맹
##딴
##뇽
##톰
##끗
##슬
##짓
##샬
##딤
##밭
##덩
##웠
##말
##외
##브
##펠
##알
##깃
##함
##삭
##긴
##꾼
##답
##욕
##펀
##쿼
##둣
##쑤
##책
##열
##합
##랫
##엿
##검
##낫
##컹
##웨
##넬
##빱
##뻠
##뒷
##빌
##맘
##쒜
##낏
##벳
##좌
##슴
##귀
##쇼
##맛
##뚝
##긋
##붙
##폼
##겐
##츤
##롭
##첨
##입
##벼
##쉬
##련
##밀
##겸
##딩
##툼
##옵
##독
##쭉
##덴
##굴
##렘
##튼
##볼
##냥
##팀
##왈
##엠
##솥
##막
##집
##겪
##났
##취
##꽃
##쌘
##끼
##졸
##멘
##앤
##춤
##객
##닮
##끄
##떡
##뽜
##ᄋ
##깽
##런
##넨
##힌
##롬
##넷
##럿
##뚱
##륙
##톨
##쩌
##흡
##엥
##쁜
##몄
##셀
##싸
##떻
##콥
##십
##꼴
##홀
##꼬
##혔
##룹
##핏
##핵
##델
##뢰
##렁
##볏
##죡
##껏
##촉
##허
##셰
##ᄀ
##얌
##귓
##첸
##멜
##콘
##칸
##폐
##융
##칩
##촨
##츄
##튜
##퓨
##휴
##릭
##튀
##깨
##뮴
##벨
##압
##멧
##층
##봇
##덜
##곳
##셸
##큰
##률
##료
##펙
##떤
##걱
##패
##끔
##펴
##퐈
##푀
##풔
##옹
##써
##낄
##쩜
##컨
##벗
##얘
##쏜
##늄
##족
##텔
##즙
##쿱
##뇬
##액
##녹
##착
##킁
##랄
##멈
##쩔
##쏘
##큘
##볍
##꽌
##번
##헤
##쩍
##월
##핑
##땅
##생
##틴
##꿀
##쭌
##억
##쓱
##몐
##뿐
##잎
##멩
##갓
##젠
##궈
##옷
##농
##밴
##쥔
##쨍
##짐
##견
##쪽
##흙
##앉
##흃
##슝
##싓
##싕
##싞
##싢
##싥
##냈
##룰
##빼
##숟
##녁
##밍
##꽂
##협
##퀸
##못
##듭
##쓴
##김
##윙
##육
##럭
##랜
##댄
##캣
##갔
##넘
##ᄐ
##젊
##젓
##흔
##릉
##둼
##엉
##쌍
##셋
##늬
##쭐
##닦
##받
##쯧
##겟
##힐
##뻤
##뻣
##뼈
##댓
##벅
##습
##죠
##펜
##벽
##험
##맨
##콜
##샤
##징
##댔
##켭
##깔
##뭇
##앙
##츙
##핸
##랠
##킬
##륭
##략
##것
##쯔
##돔
##뿌
##윅
##젤
##텝
##꼼
##쮸
##뜯
##쑥
##찰
##펄
##뷰
##컥
##또
##않
##쥬
##핀
##쁘
##깻
##렛
##뻥
##삿
##둘
##냙
##뻑
##램
##윌
##샘
##꺾
##줘
##뱀
##폰
##툰
##최
##룽
##툭
##넌
##퀴
##둔
##떨
##툴
##낙
##쌀
##싯
##돕
##섞
##놨
##뻐
##헣
##듬
##뱌
##킨
##헬
##렝
##귄
##닻
##ᄏ
##콛
##콪
##콮
##쾁
##쾃
##쾍
##쾐
##쾓
##훙
##븐
##렴
##힏
##칭
##럐
##걔
##붕
##텽
##톅
##톌
##톔
##톗
##톙
##톧
##톷
##팥
##괃
##봅
##짤
##끝
##낭
##낼
##뎬
##찡
##룀
##짱
##샌
##욋
##썹
##릐
##닝
##끌
##쑹
##뱅
##헴
##줏
##빛
##털
##텁
##얹
##핫
##뷘
##뷜
##뷩
##뷴
##뷸
##븀
##슥
##둠
##놓
##논
##맬
##쳬
##껍
##빅
##썩
##궐
##텀
##잖
##겹
##뭉
##쌈
##쉑
##괭
##흰
##윈
##앵
##갯
##므
##셉
##뚠
##밈
##확
##룻
##썰
##굽
##곰
##궂
##딸
##앗
##놈
##탐
##쇄
##잭
##삽
##즉
##랍
##얀
##흉
##롯
##삐
##튤
##뺄
##뽕
##캔
##걋
##륜
##캇
##혈
##엗
##켄
##췄
##셧
##좋
##켔
##엣
##캉
##겁
##밸
##닷
##챦
##칙
##춰
##찝
##믄
##겠
##뀐
##았
##쯰
##쯴
##꺄
##쾌
##특
##햇
##댕
##쟌
##퍠
##및
##닭
##맞
##슐
##섯
##밤
##윷
##빔
##뚜
##옐
##싹
##ᄌ
##힙
##톄
##덥
##흘
##뵥
##빳
##췬
##췯
##뷔
##컈
##꿔
##믹
##첵
##냘
##샷
##힘
##딧
##빚
##텍
##컵
##쿨
##닙
##톱
##딪
##굉
##쩡
##햏
##첼
##꼿
##뜸
##쏴
##팽
##혠
##앨
##걀
##넉
##렙
##씁
##곈
##홉
##펌
##뜰
##줌
##펑
##넛
##뮨
##헙
##닼
##릯
##픔
##툿
##츈
##푹
##묶
##쟈
##즌
##띠
##헨
##콤
##덮
##츨
##츰
##괴
##갸
##렂
##짚
##츀
##ᄒ
##젬
##챤
##봄
##콴
##팟
##겅
##빨
##퉤
##믈
##궤
##놉
##촤
##왜
##닫
##맺
##꼽
##윳
##퉁
##푼
##돐
##욬
##같
##붐
##엾
##큼
##빵
##걍
##챨
##딜
##읭
##찐
##쇅
##쇋
##쇕
##쇙
##쇡
##쇧
##쇴
##뗏
##좡
##좀
##돋
##싈
##섣
##ᄉ
##킴
##빗
##뎃
##댁
##핍
##앱
##폿
##탯
##엡
##퇴
##짬
##랏
##켰
##깡
##삑
##뵉
##퓻
##윽
##쿄
##쵸
##곅
##곋
##곔
##곘
##햅
##챙
##묻
##븨
##읠
##빡
##딕
##솜
##곱
##횃
##곶
##쨉
##옴
##섹
##덱
##횝
##셈
##읒
##뿠
##깁
##챗
##멍
##챠
##텅
##훑
##뇌
##늴
##늼
##닁
##퀘
##껄
##쌤
##삥
##쟉
##썽
##졧
##졩
##챊
##꼐
##끈
##밖
##볕
##헐
##밑
##슛
##욮
##껭
##꽁
##겡
##괄
##쯘
##쯜
##쯩
##봲
##좁
##첩
##셨
##뱚
##깍
##릅
##댜
##볶
##뽀
##숑
##쨘
##홈
##찍
##푈
##먐
##먀
##ᄆ
##귤
##∼
##쿰
##갿
##걁
##걇
##뵙
##횟
##횡
##뼜
##뼛
##켝
##켣
##켹
##켼
##콀
##콈
##턱
##찔
##얄
##솟
##녈
##픗
##껴
##젱
##갼
##걈
##걘
##걜
##륩
##컼
##긍
##뚤
##젖
##죤
##죧
##뮤
##렀
##흣
##쪗
##캡
##왐
##콧
##랬
##뀌
##힛
##뜻
##둡
##엵
##됨
##찜
##쨋
##뤠
##숩
##웽
##힝
##퀄
##롸
##콸
##됴
##맍
##녔
##팻
##펭
##횻
##긧
##긩
##캄
##삡
##샾
##뀝
##놔
##뇰
##낑
##톡
##칫
##갠
##콫
##훠
##웁
##컷
##콰
##뿜
##쌥
##쁠
##콕
##꽸
##꿎
##팩
##끙
##쉰
##닛
##뎅
##킷
##첬
##떼
##뉼
##붯
##붱
##붴
##붹
##붼
##붿
##켤
##씌
##뽛
##멸
##왘
##띃
##쁨
##챱
##켕
##켁
##킥
##갚
##윗
##줍
##뵲
##흑
##낯
##붸
##쵁
##뱐
##옛
##썸
##냅
##쉠
##뒤
##뢔
##뢘
##뢛
##벙
##펫
##핰
##땐
##퉹
##쁶
##뻔
##랩
##넵
##됐
##슭
##쭙
##뉘
##픈
##숴
##횔
##덧
##챃
##옌
##닳
##렇
##샵
##쇳
##펏
##썬
##옆
##뮈
##ᄑ
##꿩
##풋
##섰
##켠
##샐
##멕
##곧
##딥
##찮
##괘
##앜
##퐂
##홋
##칵
##뼁
##댈
##큽
##ᄃ
##껑
##댑
##땠
##팁
##싼
##ᄁ
##팜
##쪳
##쪵
##쪾
##쫃
##쫆
##쫒
##쫗
##쫜
##쫟
##쫨
##웬
##젼
##낚
##빍
##맏
##맷
##뎁
##촐
##켓
##숲
##꼰
##맢
##맫
##맭
##맻
##맽
##챔
##슷
##겻
##듸
##귯
##귱
##귾
##긂
##깊
##띵
##쨀
##갋
##쑴
##왠
##렵
##쏭
##궜
##쥴
##뿍
##잼
##쉽
##닒
##뜩
##ᄊ
##댐
##깝
##봔
##깐
##믓
##돚
##캬
##탸
##햐
##넥
##곽
##꿃
##뒀
##콱
##눠
##졓
##닿
##촹
##쓸
##엇
##핳
##갹
##똑
##쯋
##뒹
##쌓
##끓
##쨩
##쩐
##휸
##휺
##셩
##땰
##첫
##볘
##볜
##땀
##킈
##뎌
##퓔
##뻘
##졍
##좭
##듈
##뤘
##헹
##뜬
##펨
##깥
##몃
##셴
##텟
##뎨
##퉅
##ᄅ
##냄
##틋
##틍
##틔
##췩
##됩
##넣
##꼇
##뷛
##뷤
##븒
##챘
##뻬
##뉌
##탔
##쉐
##꿉
##꼮
##숨
##얏
##좸
##좻
##굇
##샂
##맡
##봣
##몆
##씻
##맴
##챰
##챵
##쵠
##쵣
##쩝
##쿵
##뉩
##뮌
##빰
##뻙
##끕
##쨰
##믜
##쥭
##슼
##봙
##쫄
##씩
##샴
##왑
##툵
##얕
##솽
##뉜
##뉟
##높
##뺨
##굼
##싶
##쳔
##쳰
##릣
##릥
##릳
##릾
##맀
##맄
##맆
##맊
##맔
##맜
##맟
##찟
##낰
##껸
##앟
##뾰
##뿅
##뛰
##찃
##찅
##짞
##똏
##넝
##눔
##셜
##홷
##뱝
##밻
##쳅
##뾻
##숯
##졉
##럕
##쌋
##숀
##쾡
##딨
##뒬
##뀔
##뀜
##탭
##퀐
##퀙
##퀜
##퀠
##퀨
##떧
##뇟
##딛
##퀀
##퀃
##찢
##얗
##굔
##꽥
##뿡
##씰
##낍
##뀄
##쌉
##뜀
##긔
##찼
##뚀
##멀
##뺴
##뜽
##퓐
##퓜
##팍
##셍
##쐐
##릎
##홴
##찻
##쏙
##잿
##넴
##밟
##엌
##쟎
##뽠
##뽣
##뽸
##뽿
##뾤
##땡
##팠
##쩬
##켸
##퀑
##휠
##팰
##뉠
##뉨
##퓸
##돗
##떴
##쌰
##씹
##뀨
##쫣
##똵
##뽧
##꽑
##뽭
##늅
##뉭
##욍
##덟
##홧
##쐇
##깠
##쥗
##멤
##쪙
##쪠
##솝
##쭤
##윰
##읽
##랗
##맑
##츌
##넹
##퇸
##퇻
##낮
##뽄
##틂
##띳
##뷺
##꼈
##쇤
##싨
##싰
##싳
##뵜
##퓽
##풉
##뺙
##븕
##눟
##뿟
##뿨
##쀠
##쀼
##쁑
##뺏
##뎠
##꺘
##몸
##쩠
##뭣
##뭬
##뮐
##뮬
##뮷
##믐
##뚫
##꺽
##쳄
##곗
##뱃
##깬
##딿
##꿇
##똟
##낌
##얽
##쾟
##쾨
##꽝
##뎻
##뎽
##돆
##ᄇ
##둄
##뗞
##벐
##벆
##챂
##삱
##촊
##풐
##맓
##욧
##엹
##푩
##촟
##듦
##맙
##픤
##픨
##픰
##쭛
##뿝
##몀
##퉛
##퉝
##퉥
##퉨
##퉫
##얭
##펼
##뷈
##밝
##윱
##퀼
##핼
##횽
##삶
##놋
##짰
##눴
##눼
##껌
##깜
##앞
##꿝
##늰
##뒁
##캘
##녠
##녣
##팃
##뜅
##덍
##땄
##멬
##좝
##짹
##틈
##긲
##뜌
##렋
##훜
##뫈
##뫋
##쒼
##쒿
##슲
##땜
##좆
##눕
##졀
##뒨
##똣
##똬
##벧
##헵
##혭
##쨌
##췌
##훌
##숫
##꺌
##촛
##훤
##렷
##쉘
##쒓
##쒕
##쒝
##쒠
##쒣
##츼
##찾
##탥
##탶
##탹
##탼
##턀
##턈
##똭
##똰
##뙁
##뙉
##뙌
##뙏
##샅
##쐣
##쐭
##쐳
##쐿
##뎀
##큉
##팝
##륌
##쿡
##몇
##썻
##굻
##뇩
##퓃
##퓅
##퓌
##멋
##섶
##꾜
##긁
##폈
##롑
##헗
##괜
##괟
##헛
##늑
##썼
##찧
##챈
##귨
##귬
##뼘
##싀
##싄
##맸
##붇
##퉷
##곁
##휼
##뚥
##겜
##홁
##쉔
##뵤
##귈
##쑈
##듕
##슘
##잰
##앋
##쎕
##뫼
##뒌
##뒏
##얤
##셌
##냠
##녝
##꾀
##꽈
##쩨
##낪
##밊
##끊
##뎡
##읏
##텡
##삙
##읗
##쫑
##뚬
##멱
##몴
##뚭
##뚯
##뚵
##뚸
##뚼
##뚿
##뛋
##뛘
##뛛
##묺
##홥
##붛
##붑
##젭
##룃
##튠
##앝
##씸
##헉
##꽬
##꽹
##웹
##꾹
##먁
##숄
##밬
##밮
##툘
##숁
##댥
##뿋
##첧
##먑
##륝
##촍
##뚳
##벑
##욡
##룛
##펁
##눗
##텬
##떰
##빴
##땃
##퓰
##캥
##쐄
##멓
##읜
##쳉
##쉴
##렡
##왁
##갖
##퍽
##쳣
##쵹
##캅
##깖
##꿋
##씽
##롓
##듣
##뻗
##륀
##뺑
##뭅
##쭘
##욜
##퇘
##©
##잽
##젯
##쮓
##쮕
##쮜
##ᄎ
##떵
##놧
##씀
##꿨
##컄
##뺐
##잣
##듄
##짖
##굥
##뱡
##꿱
##섺
##뢧
##뢱
##뢵
##뢷
##룄
##룍
##룓
##룜
##룯
##룳
##뤀
##뤂
##뤅
##뤈
##뤋
##됫
##됀
##됃
##폕
##뇻
##삔
##핱
##쑉
##쑌
##쑏
##뼡
##턌
##묟
##욟
##똛
##싾
##펋
##썮
##쌙
##촙
##빷
##잗
##춛
##묩
##멁
##횬
##깄
##씅
##쭝
##왓
##옇
##읓
##쌸
##삫
##삮
##삷
##굳
##닏
##뭄
##옠
##욘
##끤
##숖
##멨
##앓
##짠
##솨
##쌌
##뗀
##섕
##뭘
##웉
##큇
##칟
##걷
##줈
##랸
##곯
##푓
##푕
##츔
##츎
##춠
##뵨
##셙
##춨
##됺
##볐
##뻦
##몪
##쓜
##챯
##싽
##쏝
##옫
##띄
##헝
##톳
##멷
##멺
##눙
##맣
##켐
##콋
##젉
##젔
##젙
##젛
##젣
##젰
##젲
##젹
##젿
##졁
##쉈
##혯
##셤
##륍
##뎏
##땎
##땓
##땧
##꽐
##섥
##믕
##욤
##셕
##늙
##룅
##룐
##룔
##룝
##룟
##쾰
##곌
##괠
##괼
##굘
##쓩
##냏
##푝
##됼
##떄
##돠
##뭐
##뺀
##띤
##솎
##넜
##뽁
##뉸
##쯕
##눅
##퐝
##훨
##휄
##흴
##삠
##떅
##뒈
##쇨
##쇰
##덫
##녘
##쎅
##옘
##죈
##죌
##죔
##푬
##쁆
##뵹
##훅
##쩯
##벞
##쟝
##쥄
##뭔
##뭗
##꺕
##헷
##웈
##덛
##헥
##쎍
##봏
##싴
##릮
##뷼
##껜
##늗
##앰
##뙤
##홰
##똘
##팸
##뷫
##펐
##뱨
##릍
##륄
##퇫
##뗘
##춧
##슌
##띙
##얫
##팖
##깉
##컁
##쿙
##쉥
##븫
##늡
##졺
##맵
##륃
##륐
##륟
##륻
##륽
##릀
##릋
##릏
##쭴
##틘
##벍
##쪘
##튕
##냑
##픙
##픠
##횐
##쭸
##띨
##큄
##즑
##귿
##쌐
##볙
##볠
##볨
##숱
##딈
##폘
##폡
##폣
##뽇
##쮄
##쮇
##퀭
##꼍
##넙
##삤
##헸
##뭡
##잃
##봬
##핯
##괍
##깯
##킵
##깰
##뛱
##쑵
##힠
##뜃
##륒
##껙
##똔
##샛
##늠
##넠
##큔
##큠
##궨
##헿
##쫠
##땔
##풂
##뤽
##갛
##랟
##랰
##잀
##잂
##킼
##쫙
##밣
##왉
##쬿
##쭊
##쭏
##쭒
##쭥
##쭨
##쭫
##밶
##믇
##왼
##둰
##둳
##얬
##냔
##듳
##젴
##읩
##랒
##웡
##뤙
##뱔
##뱉
##즛
##풄
##짼
##빕
##벚
##엮
##펍
##뗫
##뗭
##뗴
##뗸
##똅
##똒
##똗
##똙
##빧
##쌴
##썅
##썌
##됏
##줴
##밌
##톼
##팼
##쨔
##핌
##밵
##놎
##놐
##샥
##흗
##됌
##뺘
##갇
##쳇
##슉
##죵
##돤
##돨
##돰
##쌕
##왭
##왯
##욥
##돛
##휀
##껟
##읶
##깎
##웸
##윕
##됄
##좔
##띔
##몹
##떪
##꾿
##삣
##숃
##쵯
##쵱
##쵼
##춀
##춈
##꾬
##쌔
##렾
##뎊
##쏠
##넓
##뗜
##뗟
##뗨
##갵
##쫓
##슊
##촘
##낱
##궷
##칏
##칑
##쎤
##쎧
##씐
##씔
##씜
##럞
##놘
##짢
##쁩
##뿕
##쑨
##ᄚ
##쬬
##벋
##웻
##겉
##곸
##틜
##븃
##븅
##헑
##롼
##핧
##핬
##핮
##핻
##햍
##햑
##햔
##햘
##햠
##롇
##숌
##흨
##몯
##몱
##몿
##뫃
##뫅
##쬔
##쏟
##숏
##껫
##밼
##ᄡ
##뿞
##솅
##읖
##폄
##뢍
##퀵
##뼠
##윁
##윋
##윎
##윓
##윘
##윜
##횹
##뺩
##훡
##훱
##훳
##팂
##놰
##겄
##푠
##푣
##뛸
##춥
##옮
##럇
##갗
##쩟
##찹
##퉌
##퉏
##툠
##렜
##뫠
##묀
##묄
##묌
##슶
##틊
##롮
##잆
##엎
##뗄
##탗
##닺
##뢸
##밫
##녤
##틑
##횅
##엙
##흽
##힁
##냇
##쓈
##줫
##굄
##긑
##닠
##휑
##얆
##슙
##꾠
##꾣
##텃
##쓤
##즁
##좜
##쯱
##얔
##풩
##훓
##셱
##쾅
##휟
##끫
##뱕
##푄
##얜
##쁂
##훔
##늜
##쏫
##쏱
##뵌
##샀
##쟨
##츳
##졽
##툉
##쎼
##뤗
##퇀
##뼤
##뼷
##캑
##캴
##븟
##섀
##쒀
##쒔
##쒸
##뢴
##찲
##앍
##웩
##늕
##웂
##쥣
##쥰
##쥼
##묜
##졋
##챡
##귝
##틠
##틤
##뮳
##쿗
##쿧
##쿺
##쿽
##퀌
##쭚
##꺅
##롹
##뾔
##쬘
##녯
##녱
##늪
##컾
##끽
##엻
##뱜
##겍
##튯
##튱
##쨈
##쬰
##쬴
##쬼
##롐
##뻢
##튦
##먘
##먚
##먆
##먈
##뵸
##봈
##묦
##솒
##쑩
##멽
##쯪
##귐
##앳
##괏
##괩
##괬
##귢
##짧
##헕
##먄
##먕
##먜
##췸
##뤳
##흫
##췐
##췔
##췜
##멹
##넼
##휏
##뗑
##빋
##븱
##엺
##쿈
##쿌
##쿔
##빹
##빻
##촷
##벓
##텄
##댯
##댱
##댸
##댼
##떙
##삚
##섄
##섈
##섐
##벊
##튓
##뭀
##낳
##웟
##둞
##쉛
##렣
##뤔
##뉽
##캭
##틉
##몌
##밯
##밷
##뱆
##뱟
##뱧
##덯
##싁
##럖
##웳
##옏
##팎
##섪
##탆
##갢
##럾
##렄
##렆
##렏
##솰
##샜
##읊
##쁴
##쨧
##쨭
##쩓
##쩗
##즔
##즞
##즤
##뿯
##쀄
##쮤
##뗌
##뉻
##겊
##섦
##곕
##쫴
##곬
##퉈
##떳
##픋
##귁
##젷
##묽
##펩
##쎈
##쎋
##뛔
##놴
##놸
##뇄
##켬
##땬
##땽
##떈
##뜷
##뎐
##웄
##햬
##걌
##걤
##뼢
##끵
##띈
##뼙
##꿤
##꿧
##낟
##겴
##췟
##늣
##혤
##븜
##옳
##삘
##쵤
##쵬
##푤
##샙
##탉
##쎔
##엏
##죰
##먓
##먻
##먿
##멌
##멏
##멛
##멠
##멪
##늉
##뫙
##쯀
##탒
##듮
##뒴
##랲
##앃
##븑
##퍅
##읃
##읅
##윔
##묫
##엃
##묭
##벰
##챼
##뀃
##쑘
##븞
##붍
##뗻
##띧
##녃
##녇
##녋
##녓
##녙
##빩
##캗
##캩
##좟
##좨
##좼
##얇
##괸
##뀪
##몜
##쮠
##쮣
##랋
##삵
##돵
##쿜
##괵
##갲
##곂
##빽
##쇈
##쵀
##쵓
##삯
##뭰
##뭴
##뭼
##쑝
##짇
##녾
##얠
##잴
##쟐
##쟬
##횰
##퀻
##큑
##큡
##큣
##큥
##큨
##큲
##큶
##큿
##쭁
##뿛
##퇵
##훕
##빟
##빢
##빶
##빾
##뺃
##뺜
##뺸
##뻡
##뻭
##뻰
##뻳
##뛴
##옜
##툣
##툥
##땟
##훽
##쏼
##쎌
##뾱
##튿
##껩
##껬
##껱
##껵
##껻
##꼄
##쮐
##쇌
##띻
##뮫
##죗
##죙
##썃
##썐
##썔
##썜
##썡
##썪
##썯
##쎂
##뽓
##슁
##횯
##뺌
##딍
##깆
##깟
##텸
##씠
##밗
##쓧
##쓷
##씃
##씍
##씝
##씟
##씡
##씯
##씱
##씼
##씿
##븝
##밁
##밄
##밎
##밐
##밠
##밨
##헠
##쵝
##벱
##뇐
##뇓
##듓
##뙈
##찿
##넡
##쨤
##냩
##냬
##넁
##븍
##땍
##쌧
##뜵
##긼
##뿑
##끟
##뀟
##뀡
##뀬
##뀰
##뀸
##홨
##풰
##폇
##퇏
##퇑
##퇬
##뙥
##뙫
##늦
##읋
##돘
##쥠
##혓
##왽
##웒
##뷻
##핡
##볓
##꽇
##풧
##뭏
##꿘
##꿛
##챕
##늳
##띰
##쳕
##잌
##껨
##쫫
##쫭
##쫵
##쫸
##쫻
##턁
##퐛
##퐤
##졇
##덞
##쵰
##춉
##춋
##춍
##춱
##춴
##춷
##뒥
##띌
##잪
##핲
##쳥
##볻
##갭
##줼
##쾀
##륏
##륑
##묏
##묑
##묠
##퓩
##횸
##앾
##얃
##얐
##얒
##얙
##얟
##얨
##혿
##옅
##츱
##싫
##뇯
##핥
##껒
##깩
##핟
##쉄
##뻴
##뻼
##졈
##홱
##왱
##꾁
##갬
##굅
##굡
##뎈
##칯
##놏
##캌
##짭
##듼
##듿
##똠
##뛨
##슿
##꾲
##꿁
##꿏
##꿕
##꿷
##뀅
##뀓
##컫
##꽛
##굶
##튄
##쫌
##좇
##딮
##쐉
##볋
##뛟
##눤
##눧
##띡
##랃
##랈
##랓
##읔
##릔
##릘
##릠
##뙛
##놜
##긎
##켑
##엊
##겯
##쪔
##즏
##끳
##젋
##쾻
##쾽
##욼
##묨
##퀫
##썷
##굣
##옻
##뀽
##뼟
##쁙
##쁟
##쁫
##삗
##삦
##늚
##쉼
##챌
##뒘
##눞
##눨
##눳
##봗
##뮉
##슺
##촵
##뭍
##훒
##릞
##솁
##뵊
##뵏
##뵛
##슽
##싿
##쌁
##뉵
##픳
##픵
##핃
##핕
##햣
##햫
##엨
##훰
##쇗
##퉀
##옦
##춦
##퍚
##뻖
##첞
##땋
##욯
##녬
##훍
##릵
##밳
##쪈
##쪋
##뎔
##듶
##뗬
##뼸
##뮹
##즷
##즹
##짏
##짒
##짔
##짗
##짛
##짣
##짨
##짷
##짿
##쨕
##쨚
##쨜
##뫗
##꺗
##꺙
##꺠
##꺵
##뺡
##쩸
##줓
##솣
##솦
##솸
##뷧
##뷱
##뷷
##븁
##븓
##븗
##긶
##겿
##쎠
##뫄
##뭭
##뫟
##븡
##븣
##븥
##븧
##넽
##췃
##췅
##췍
##첦
##앴
##츅
##셗
##셛
##셟
##헀
##헏
##헜
##헡
##뇍
##긱
##롕
##롣
##롨
##롫
##롴
##롶
##팹
##뾬
##뿀
##뀠
##놛
##똴
##뙨
##튇
##럣
##럲
##쉳
##슆
##슏
##슫
##슮
##쐰
##쐴
##쐼
##뵐
##쉡
##얶
##궫
##쇽
##뵘
##뇜
##칢
##칬
##칮
##칰
##칲
##칻
##캈
##캍
##쬤
##툐
##⁄
##댇
##밙
##쉿
##삒
##캎
##쫘
##뼌
##썀
##닜
##뉙
##뉫
##뉯
##늇
##늊
##쬭
##닑
##닓
##딋
##딫
##딭
##몟
##몡
##몣
##몥
##밺
##샆
##꽉
##뽝
##봑
##즥
##튽
##껠
##웯
##뗔
##잩
##췁
##쬈
##쬐
##뇹
##푁
##푐
##헼
##봠
##푴
##녑
##줸
##줻
##캤
##퉜
##녺
##뗍
##낻
##갉
##짯
##댠
##쮯
##쮱
##쮹
##쮼
##쯈
##촫
##몓
##랻
##눰
##싑
##뱁
##좍
##탏
##욀
##믙
##뫘
##뻿
##끾
##괢
##괨
##쨴
##굗
##퓟
##퓬
##쎰
##긕
##횄
##횓
##횜
##횩
##훋
##퓍
##퓝
##퓡
##퓯
##퓹
##픅
##픐
##핣
##읟
##땛
##샒
##뻚
##첲
##봆
##몉
##촏
##섡
##풏
##삲
##욣
##쓚
##퓳
##톁
##욈
##쩽
##눛
##뮥
##뮵
##믁
##믉
##믌
##믏
##믑
##랖
##흭
##흳
##흿
##힗
##힜
##껐
##캿
##컌
##컻
##컽
##뢀
##뢈
##낃
##낋
##낐
##낕
##낛
##낤
##낲
##냎
##냗
##냡
##냣
##냦
##넊
##넏
##넗
##넞
##궅
##췀
##볃
##볈
##볌
##볒
##쌨
##잍
##궶
##궻
##랤
##궢
##몊
##꿑
##뵀
##쀏
##곖
##쵮
##곲
##읪
##뢉
##뢨
##뗠
##슦
##뇦
##싣
##슾
##툔
##뾲
##륷
##끧
##읦
##읨
##앏
##럏
##뫤
##뫨
##뫱
##뫴
##몕
##뿓
##뒫
##됸
##삾
##쁌
##얦
##즨
##즬
##즴
##졎
##졑
##졕
##졘
##졜
##졤
##쌎
##쌑
##쌛
##쌯
##됟
##쐈
##쐤
##쐬
##뺵
##뵭
##죳
##죻
##툹
##쒯
##퇗
##켚
##쬑
##쬗
##쬣
##맠
##볔
##떽
##폥
##봡
##얺
##얿
##엤
##엩
##큮
##왬
##퉸
##뉏
##풤
##둪
##둭
##홓
##귑
##솩
##췰
##뒝
##줆
##쇔
##잏
##섾
##쥥
##쥽
##쥿
##툑
##춪
##뭃
##챷
##촓
##뗡
##잊
##숡
##숤
##숧
##숮
##숳
##숵
##숸
##숻
##쏸
##솓
##솕
##솗
##띱
##틥
##홇
##쓛
##쯉
##뇔
##뺦
##굵
##뎒
##빮
##푾
##윮
##쑬
##첛
##팛
##툓
##굛
##휨
##흄
##흼
##꼉
##꼗
##꼥
##꼳
##꼶
##꼸
##꼻
##꽅
##꽏
##꽘
##챸
##탘
##옄
##뿎
##풘
##풛
##쏌
##낡
##퐉
##댰
##큅
##끜
##툇
##촁
##뾸
##킄
##뜔
##뜜
##뜡
##뜲
##솻
##뚮
##쐙
##뽟
##찓
##닯
##엷
##춢
##맚
##몲
##탇
##촑
##뱍
##쁕
##뾹
##얓
##푧
##궴
##엳
##됭
##쳿
##촥
##촴
##촠
##쌵
##솑
##붏
##챲
##앖
##첣
##쉇
##픓
##옿
##걳
##걵
##걹
##겇
##겓
##겥
##겧
##겱
##겷
##겾
##덙
##덦
##덨
##덪
##덭
##덷
##뎆
##뎍
##뎓
##뎘
##뎜
##킛
##킝
##킫
##킸
##킾
##탊
##탚
##탢
##뽈
##쩻
##읕
##댫
##웝
##됻
##폂
##얉
##륰
##쾔
##턍
##읫
##솃
##췻
##췽
##뒸
##듁
##듑
##듥
##듧
##댙
##댝
##댤
##댧
##댬
##솤
##홑
##쓋
##쓍
##쓓
##뗐
##놩
##뇠
##퇄
##퇌
##뻉
##릊
##뜳
##떫
##츧
##럸
##뎰
##뎸
##잫
##춸
##뱛
##퍘
##뚢
##턓
##쁋
##첯
##먏
##첟
##폅
##뺟
##뵫
##뮽
##춣
##늧
##늫
##늭
##흝
##퐌
##퐐
##퐘
##흇
##툽
##벎
##밞
##큭
##쉉
##쉗
##쉣
##흍
##볽
##쾜
##먖
##뱦
##밦
##툝
##춗
##엯
##죥
##쌜
##뱓
##뻟
##튳
##퓵
##줃
##줗
##줙
##줜
##줟
##쳭
##쳴
##쳼
##쓿
##볅
##퍗
##퍙
##뚪
##냌
##캼
##폔
##뮘
##뉀
##뉃
##쟷
##쟹
##꿜
##꿥
##놤
##뛌
##돡
##싲
##뗝
##괫
##쫬
##쬠
##꽤
##줨
##펻
##뚦
##푥
##늿
##휵
##퐠
##픕
##벝
##솬
##쁖
##쁓
##튐
##쥇
##쳘
##봥
##봰
##봳
##긇
##쏻
##떱
##푭
##푯
##죕
##돎
##푱
##쯛
##깪
##깳
##깶
##꺁
##꺈
##꺋
##꺍
##껂
##댛
##휙
##쁎
##쩅
##뫽
##묃
##묙
##뭋
##뭑
##뭠
##뭤
##걕
##윧
##윶
##윸
##넸
##떷
##륲
##쑛
##쑫
##쑷
##쑾
##쒁
##쒄
##쒇
##븻
##븽
##빘
##빜
##뼏
##밉
##혬
##봊
##텼
##끅
##뫔
##쵭
##팈
##팊
##핤
##삺
##샋
##샏
##샣
##샫
##샸
##샻
##꾓
##뵷
##붂
##붋
##붎
##붖
##먽
##잦
##궸
##끎
##몾
##폽
##툄
##퐄
##짙
##쮬
##뗶
##뗵
##펔
##롷
##끛
##븛
##겆
##껚
##딀
##딉
##쥘
##뇸
##눍
##눐
##눓
##눡
##츗
##뵬
##뵴
##쁈
##탰
##싐
##풴
##풸
##퓀
##떯
##뗃
##뗙
##꽫
##쯍
##뱰
##뱷
##뱽
##벘
##벜
##땨
##끋
##끍
##웜
##쟘
##훵
##셳
##솀
##셥
##킅
##꺢
##귪
##궭
##궼
##긤
##봎
##잓
##잙
##잧
##쪁
##폗
##퉴
##괽
##휭
##돣
##욢
##멆
##첰
##썭
##뽐
##섢
##텳
##쎥
##꿰
##숞
##뽖
##탺
##찺
##빪
##뱞
##얎
##톮
##쎨
##욿
##엱
##똝
##믠
##믤
##믬
##욦
##앧
##앹
##샄
##뿁
##눵
##눽
##쳫
##씤
##긘
##긜
##긠
##엫
##턔
##쾩
##쾬
##쾸
##쏨
##좬
##좯
##랕
##쉞
##풒
##헫
##헾
##혇
##혝
##뀩
##벛
##쌷
##쮝
##젂
##젆
##튵
##쪤
##쪨
##쪰
##햻
##찦
##찯
##찱
##챋
##챛
##챞
##챳
##챺
##첑
##첮
##첻
##쳃
##쳈
##쳑
##쳗
##틧
##틩
##얻
##홤
##됙
##됤
##됬
##뙇
##죋
##솊
##펃
##펎
##펕
##펟
##펬
##펲
##펵
##펹
##폑
##폠
##폮
##폳
##쯥
##렫
##렰
##렼
##롁
##껼
##쒹
##뛤
##쩛
##쩧
##쩩
##곀
##툳
##툶
##퉉
##둿
##츕
##츩
##츬
##쬽
##쟤
##켯
##홄
##옾
##븬
##븰
##븸
##흅
##흕
##흟
##흪
##랼
##럄
##궃
##킌
##킐
##킘
##뵳
##뽘
##넒
##붆
##뽔
##벇
##폃
##툩
##욙
##푫
##묱
##졷
##좐
##좒
##콬
##믿
##뵝
##샇
##괞
##칡
##끠
##쐌
##삜
##텯
##뎟
##궛
##틄
##갽
##쎙
##쏀
##뜹
##띕
##텈
##뺠
##첪
##뻕
##뺥
##찭
##춝
##픁
##쳧
##쵄
##몍
##쏏
##쟂
##쟏
##쟙
##쟛
##쟫
##쟴
##먗
##됵
##훟
##굠
##빺
##춮
##턐
##뭌
##쌚
##숝
##잛
##챹
##앛
##샪
##뎙
##촕
##뵶
##옯
##옲
##옺
##옽
##죅
##죘
##뙷
##핛
##탾
##뮺
##쳡
##볫
##볭
##멎
##뙴
##왇
##뼱
##쓔
##볿
##맒
##짘
##깸
##꽴
##뚣
##짦
##읳
##엪
##룺
##뿘
##왰
##왿
##욂
##욌
##욒
##욛
##욝
##욷
##웆
##뤩
##쪅
##횀
##튻
##딲
##딷
##딹
##봹
##툈
##흩
##팗
##폯
##붗
##룥
##뱏
##펗
##뚕
##퐃
##맋
##몏
##귇
##뷇
##읿
##쒐
##죨
##뛷
##랔
##쎝
##롈
##톽
##줭
##줵
##뺛
##괆
##괌
##닸
##붠
##붣
##쬷
##홅
##쌻
##풇
##껰
##돲
##휫
##쐑
##쐔
##쐗
##셑
##꾕
##귭
##쨎
##켇
##괐
##괙
##괻
##괾
##굈
##굑
##굸
##궆
##궏
##궙
##궥
##귊
##귔
##뭿
##큾
##벖
##텂
##튈
##꾇
##턋
##턘
##턚
##턷
##턹
##턻
##텓
##텠
##텦
##텩
##혽
##홛
##홠
##왣
##잤
##몔
##돏
##돓
##돜
##돞
##앒
##앚
##앢
##듹
##앸
##퉔
##퉘
##쁅
##읎
##읙
##읻
##잋
##캰
##믯
##믱
##뎩
##딳
##쬧
##맇
##돳
##놕
##촾
##륫
##윢
##욨
##툸
##뚆
##몭
##뤤
##뤨
##뤰
##뽱
##쁃
##뮝
##쒬
##얂
##욚
##덠
##턒
##첚
##촒
##휃
##휌
##좕
##좠
##좩
##뻞
##엸
##묚
##쑍
##봀
##몮
##뽚
##봃
##뻒
##뒵
##턑
##칀
##칄
##칌
##쿅
##뒛
##뺍
##덈
##떎
##쯸
##찀
##뒉
##텆
##튲
##퍐
##옼
##뭎
##닰
##몳
##빣
##졾
##밲
##쩰
##톲
##댶
##퉆
##뱒
##볾
##튶
##닞
##닣
##닶
##왷
##왧
##뷃
##싟
##븿
##쑀
##쑐
##묬
##븉
##뢋
##잨
##곩
##곫
##곮
##곷
##곹
##벢
##벸
##묍
##졏
##둴
##덽
##붝
##붬
##윾
##휜
##쎗
##옉
##옝
##옪
##뤡
##꾐
##튭
##톹
##웤
##쥈
##볷
##섨
##섴
##섿
##셎
##튝
##틁
##틕
##틷
##팓
##팣
##팦
##팯
##퍁
##퍈
##퍌
##퍔
##뙘
##쓖
##띾
##깹
##꽨
##왝
##쒭
##쓘
##뼝
##땈
##윲
##퓴
##촎
##셒
##풕
##첡
##뮛
##긹
##깇
##깋
##깓
##깢
##쎳
##켱
##붜
##붰
##쿸
##뷋
##켙
으로
에서
##니다
20
한다
습니다
지만
##00
에게
다고
까지
라고
면서
다는
대한
지난
201
위해
때문
된다
사람
19
는데
라는
10
우리
부터
아니
한국
대해
정부
보다
경우
미국
문제
서울
사용
시간
그러
가능
##통령
다른
200
대통령
대표
위원
자신
지역
아이
이후
생각
관계
함께
이나
통해
입니다
이상
의원
시장
해야
중국
12
밝혔
관련
따라
경기
시작
으며
가장
11
이번
경찰
경제
그리
합니다
조사
일본
국민
도록
정도
기업
사업
사실
사이
상황
그러나
세계
만들
하나
필요
현재
##스트
지원
사회
정치
연구
국가
위한
해서
모두
는다
후보
다시
30
15
가지
##레이
##지만
이날
기자
거나
동안
처럼
프로
들어
결과
##er
교육
북한
그녀
으면
하지만
지난해
따르
민주
그리고
진행
최근
다가
국회
계획
주장
모든
사건
금융
이런
대학
특히
18
어서
정보
지금
다음
당시
이용
기록
기술
그런
관계자
정책
투자
##시아
라며
##으며
많이
설명
공격
피해
이유
개발
국내
##an
모습
학교
사진
는지
결정
관리
##000
또한
여성
보이
전문
16
일부
게임
알려
이어
이미
발생
발표
새로
올해
##on
상태
13
##리아
평가
확인
나타
##대로
내용
예정
포함
대상
활동
##비스
처음
최고
과정
##in
14
나오
기준
선거
운영
회사
기관
##렇게
인터
##부터
위원회
업체
달러
삼성
##인다
상대
이라
문화
선수
추가
공개
17
25
한다는
서비스
나라
계속
없이
여러
은행
장관
같이
##ar
제공
판매
보여
회의
시키
국제
그것
회장
증가
가격
입장
영화
이름
##운데
요구
지적
떨어
만큼
방송
새로운
못하
수준
제품
다면
가운데
자리
수사
가족
영국
오후
규모
학생
실제
그래
부분
혐의
도시
검찰
이야
##이트
참여
중요
100
사고
너무
##이스
전체
50
한다고
누리
산업
직접
돌아
개인
노동
영향
아닌
다양
기간
일반
##랜드
이야기
지방
오늘
분석
199
구조
최대
교수
##어나
전망
감독
24
보인다
어떤
##or
스타
어려
결국
효과
21
역시
이라고
해당
대부
병원
강조
준비
어요
거래
위원장
추진
바로
예상
##en
##전히
여기
경쟁
방법
강화
인사
발견
안전
성장
시즌
인지
등장
22
##요일
책임
마음
방문
유지
자동
정상
매우
##st
행사
##마트
대부분
나온
소비
아무
기대
현대
그룹
의해
인데
운동
중앙
한편
생활
오전
아직
상당
단체
구성
물론
대해서
의미
##으나
더라
카드
통신
열린
어떻
방식
##주의
개월
자체
40
역사
##스터
23
##at
센터
마련
환경
관심
##라이
사망
중심
##머니
친구
또는
라면
특별
이제
성공
능력
주요
확대
전국
##al
직원
자유
기존
거의
뉴스
시스
처리
어야
주민
제도
시민
보도
생산
어린
공동
보험
어느
지도
개선
스마트
지지
우려
노력
민주당
co
반대
위치
의견
현장
차량
보호
##리스
이전
이렇게
전화
27
총리
대회
선택
인정
발전
주택
마지
해도
외국
으나
연합
26
만나
다만
28
시설
시스템
못했
올라
상승
2013
역할
변화
건강
존재
##전자
유럽
인해
마지막
자기
##거리
해결
기본
마다
어떻게
작품
##진다
적용
프로그
리그
드러
##버지
하루
당국
앞서
제기
계약
지나
여행
기사
기능
사랑
2012
프랑
##le
로부터
##이지
해외
부산
이것
에선
대신
더욱
비판
로서
활용
합의
작업
여자
설치
치료
시대
이동
전쟁
조직
29
청와
청와대
달리
지속
조치
대비
##니까
대로
논의
판단
프로그램
이러
위험
려고
데이
나가
각각
현지
인간
실시
아서
참석
##무원
대책
건설
행정
논란
국정
자금
자료
언론
고려
위기
##민국
거리
예산
남자
과거
전문가
그렇
러시아
도움
사무
전략
인터넷
공식
조정
재판
미래
##ic
제작
플레이
2014
경영
독일
자동차
비롯
했으며
전했
의사
내려
과학
무엇
검사
관광
이사
얼마
##한다
환자
라이
대한민국
개혁
198
상품
평균
프랑스
부담
정말
아들
업무
이뤄
전투
지난달
위해서
아파
분야
2015
비용
대출
협력
##어난
출신
내년
소속
요청
보고
고객
모르
방안
알려졌
인상
차지
소리
2011
이해
조금
행위
외교
비해
##린다
무기
부족
법원
##인트
행동
나왔
정신
항공
출시
2010
아버지
려는
금리
마을
주인
감사
먼저
제대로
안정
차이
통합
신청
##라인
원내
차례
반면
됩니다
들어가
대화
000
라도
범죄
목표
어렵
##el
당신
가까
제외
승리
##레스
공사
인기
집중
도입
언급
아파트
투표
보내
주변
##동안
머리
60
확보
전자
대응
이루
덧붙
모델
비교
대변
31
재정
영상
감소
여부
적극
##it
배우
개정
업계
의료
##자리
가치
단계
실제로
2016
일정
서로
그래서
음악
유명
바이
박근
TV
캐릭
자연
시행
얘기
현실
따른
##소리
마이
결혼
만든
롯데
여전히
그런데
내부
경험
강력
회담
레이
시켜
복지
오른
박근혜
애플
아야
기회
공무원
가입
찾아
##디오
비슷
교통
동시
스마트폰
캐릭터
##다는
변호
바람
건물
인도
더라도
인천
속도
훈련
시리
도로
남성
##너지
공연
덧붙였
협상
대선
밖에
분위
신고
가진
수출
##es
움직
그대로
디자
보였
공급
회복
협의
검토
연금
분기
소득
공간
담당
의혹
얼굴
아래
표현
나타났
우선
대변인
소비자
지구
방향
부모
타이
정당
제주
수도
영업
발언
어머니
구속
토론
느냐
분위기
최종
음식
형태
##이드
국방
장애
제한
LG
불법
충분
프리
시절
시기
세요
최초
시험
어린이
포인트
##스크
가져
2009
제안
##대표
누구
선정
2008
##ou
인물
시도
사이트
70
##am
으로서
2000
시리즈
어디
장기
신문
수익
인식
고용
##운드
본인
참가
오히
거부
사장
##없이
제시
종합
지급
못한
오히려
등록
연결
##is
인터뷰
관한
##시스
원인
정확
SK
스러
피해자
##이션
잘못
규정
수입
##학교
사태
다르
야당
하락
금지
대전
##he
목적
테러
여야
35
##프트
공공
중단
버리
군사
아시아
사례
핵심
다며
소개
개최
넘어
동물
그렇게
축구
글로
2017
이익
변경
규제
##il
반응
광주
사라
스트
전기
주로
197
방침
법안
나온다
평화
##디어
보유
그냥
이르
##페인
##러스
##스로
목소리
높이
기념
작가
전해
인가
조건
##가지
그림
본부
주식
원내대표
매출
##re
삼성전자
구매
이미지
500
으로부터
부인
남북
총선
나이
마리
질문
진출
외국인
대형
전혀
가구
코스
월드
##우스
부상
의장
비행
##니아
했으나
최소
통과
버스
세상
대사
스럽
지하
부정
청소
따라서
민간
디자인
##은행
출연
부동
각종
정권
글로벌
전환
올리
근로
32
##나라
힘들
대구
가정
기반
일으
세대
변호사
혁신
밝혀
브라
여론
으로써
미사
##기업
판결
보고서
전달
연구원
우승
스스로
이하
교사
80
불구
연기
확실
제출
인구
배치
소송
체제
공항
생명
수행
세력
네요
##어들
예술
차원
증권
기억
임금
불과
지정
##리카
의회
다니
으니
##반기
위협
아프
올림
언제
에너지
기소
##아들
온라인
수석
부동산
촬영
주목
기획
분명
제조
##BS
희망
순간
중소
실패
경기도
작년
심각
일단
공정
설립
인수
특정
기다
므로
발사
대체
소식
김정
모양
통화
선언
자주
비율
내놓
자원
모바
아주
주도
모바일
여름
보수
현상
본격
뉴욕
데이터
추정
전시
아침
절차
오바
##ol
자산
사항
보장
느낌
청년
##다고
브랜드
위반
더불
나와
부문
라인
그동안
스토
반영
##어지
엄마
문재
세월
방어
조성
오바마
성과
바라
근무
전통
##as
심사
노래
도착
주의
올림픽
##et
엄청
오래
고등
##ing
연속
시켰
수요
자세
파악
협회
독립
단지
미사일
구체
문서
설정
부대
비난
시위
45
확정
어려운
호텔
통일
만드
지켜
##벤트
스포
우주
단순
안보
유일
이탈
이끌
는가
공장
다이
공원
##ac
이벤트
인근
##의원
노조
마치
300
##ed
남편
196
시킨
2007
2018
체계
장면
선고
사전
초기
인권
아마
드라
시점
어도
##ion
아내
불리
완전히
장비
거쳐
더니
걱정
선발
공화
kr
회원
오르
정의
서울시
특수
휴대
일자리
처벌
얼마나
훨씬
카메
려면
시각
식품
을까
주문
행복
조선
상당히
장소
원래
##수록
활성
신용
충격
36
갈등
원장
신경
메시
국무
약속
크리스
받아들
마찬
니까
전날
시청
사상
가량
증거
베이
요금
대학교
마찬가지
한다면
사과
구축
무대
com
보안
집단
계열
##ro
이곳
나서
의식
##다가
차단
보통
1000
부르
나타나
비중
33
##무리
유리
유통
으면서
##BC
추천
##ad
등급
하이
당하
주인공
##어났
달라
이른
보건
바뀌
재산
전력
나무
소유
번호
선보
체포
불안
수상
조차
당선
피부
향후
떠나
폭발
케이
스포츠
페이스
내리
해석
열리
교체
의지
실적
접근
90
나머
인한
수술
둘러
빠르
스킬
대중
떨어지
고자
나머지
살인
비서
선물
마무리
구글
메이
세금
영어
제재
홍보
동의
특성
준다
##아가
집행
부부
운전
예방
공천
##20
유치
졸업
외부
폭력
소재
법인
앞두
파이
정리
성적
구입
이란
체험
자녀
고민
km
느끼
그만
의무
##니스
화장
항상
차별
안타
조합
회견
세기
불러
일어나
부장
자본
의심
펀드
드라마
왼쪽
경고
법률
당연
촉구
##ri
실장
신뢰
클럽
컴퓨
보상
성능
강한
올랐
임대
뉴시스
스러운
기구
심리
요즘
금액
슈퍼
강남
직후
초등
지수
표시
위안
강제
34
청소년
성격
지키
감정
동일
특징
아요
##자기
연장
국립
전반
허용
##비아
동료
##젝트
포기
자격
바다
##ch
장치
범위
완화
투입
쇼핑
##ul
메시지
공유
텔레
혹은
작성
멤버
청구
블랙
중간
소방
파괴
으려
보조
##란드
무슨
물질
다리
수수
명령
계기
도전
거기
인하
판사
점검
##드시
나섰
혜택
근거
##므로
인력
반드시
##50
선생
수정
그리스
후반
빠져
전부
카메라
한테
헌법
보스
취업
통한
초반
기초
강원
소녀
##학생
당했
문재인
38
컴퓨터
바꾸
##반도
측면
경남
비밀
스타일
프로젝트
포스
학년
무역
이어지
형성
KT
혼자
##총리
겨울
지시
확산
실험
야구
참고
2006
사실상
아름
노인
국회의원
신규
방지
고위
지배
스테
통제
중소기업
메르
직장
된다는
##럼프
매일
폐지
작전
배경
는데요
시킬
최저
아이폰
48
만약
소설
5000
유엔
희생
교과
마법
원칙
출마
고통
이탈리아
여당
제거
밝히
##어진
저녁
설계
한반도
비상
194
##ot
민족
진정
말씀
##us
수용
죽음
반발
작용
불가
달성
아동
형사
미치
##텐츠
트럼프
그래도
공단
근처
절반
박사
절대
크기
약간
진짜
아르
고속
벌이
37
빨리
##ig
브리
##ay
채용
감염
레벨
소프트
구간
요리
트위
전용
영역
주제
주말
권력
건축
완성
이달
관측
런던
가슴
버전
알리
매장
연구소
요소
교회
공부
순위
유로
매년
철도
##om
자는
재미
자치
##id
노선
PC
축제
완전
듯이
충돌
국토
네이
노동자
이슬
짜리
효율
운용
하늘
호주
##른다
줄이
갤럭
충분히
시리아
임명
갤럭시
지사
##페이지
트위터
저희
무시
갑자기
출발
진단
##지어
홈페이지
올려
##리어
오른쪽
투자자
빠른
지도자
이스
과제
가까운
종교
생기
파일
걸쳐
IS
기여
천만
연방
월드컵
싸움
근로자
부여
어려움
직업
평소
부채
주가
된다고
저지
나선
스토리
드리
##un
체결
네트
애니
바탕
소환
권리
우수
수단
예비
사기
55
기기
타임
챔피
다소
화면
심지어
돌아가
지휘
어제
늘어나
물리
아기
성명
유가
아예
재단
불편
감안
반복
의도
연대
가스
적절
종류
활약
만족
맞춰
국장
##리트
2005
체육
버렸
분리
양국
무장
나중
응답
별도
##ur
마시
압박
이때
총장
전해졌
해양
유사
화재
미술
무료
거주
자랑
39
41
스페인
미리
운행
국방부
징역
유저
개입
문학
대법
덕분
발매
분류
##사자
마저
대기
취소
##os
세트
전년
다수
임시
진술
제일
수원
42
태도
확장
그때
고등학교
유출
개념
언어
소년
플레이어
지식
대북
을지
아이템
개정안
떨어진
43
경선
조작
화학
채권
분양
식사
전면
이슬람
연락
미군
아울
거대
무리
타격
보냈
은데
나올
출전
##미지
나누
밝힌
의한
부처
가르
법정
단독
강하
냐는
꾸준
앨범
비디오
움직임
주차
군대
구역
##간다
44
살아
할인
알아
데뷔
겁니다
오랜
검색
커피
상담
실질
물건
울산
경쟁력
##로그
아도
악화
긍정
요인
엔진
파트
##레이드
##고기
게다가
사정
국정원
생존
지분
본다
알려진
사업자
##워크
지점
오픈
주일
개국
굉장
창업
##스타
##티브
미디어
##라스
해군
기다리
당장
가수
개편
기계
살해
성폭
기타
경찰서
패배
제국
불만
김영
였으며
승인
살펴
현금
IT
할지
습니까
콘텐츠
정규
태양
올렸
##버스
카페
철저
도와
관광객
만난
정체
매각
수비
전하
묘사
46
청문
그럼
문자
체력
자살
수업
가로
소장
47
사법
앵커
여의
이명
처분
식당
원자
감시
52
모아
고양
명예
지상
놀라
창조
흔들
편의
모드
달려
정기
고급
단일
진입
돌려
이웃
바닥
는다는
취임
노출
페이스북
점수
##로스
##철수
##심히
폭행
가리
긴급
##시오
##nd
도서
아울러
##데이
아름다
복귀
195
재료
한계
연설
통상
인증
누가
혁명
교육청
질환
2004
##im
홍콩
사령
부탁
결제
선진
51
했었
비리
##ow
##ra
따로
점점
예측
학원
##거운
결론
##의자
해소
통계
연계
65
##카오
법무
내렸
다운
가득
수치
사퇴
디지
가까이
분노
엄청난
지도부
남부
당한
상징
인생
소통
네트워크
챔피언
종료
부진
형식
잠시
##TA
동원
학부
사무실
택시
공약
오리
안철수
전남
##리오
49
향해
직전
브라질
400
알려져
맛있
손해
주년
유도
출판
담배
수십
3000
답변
드러났
##회장
75
##마스
##어날
주소
이외
채널
간단
2019
대우
시내
아베
교과서
로운
기에
지요
저축
굉장히
노트
물가
취지
##ent
싸우
편집
투수
접수
집회
연출
로스
완료
게시
접촉
개성
프리미
정비
테이
마케
와서
동기
권한
열심히
나갈
그린
으므로
파리
베트
디스
연간
새벽
수많
대리
들여
줄어들
께서
##준다
향상
일상
the
끝나
##나무
##NS
상임
바르
이뤄지
누군
정지
득점
방해
##웨어
발행
##플레이
##영상
영웅
돼야
가계
성인
표준
흐름
of
안내
내일
54
##터리
똑같
해요
실력
도발
과장
기지
53
특허
도쿄
이재
만화
협정
호소
손실
캠프
아프리카
혼란
##나마
긴장
코리아
형제
야권
합병
생긴
인민
의문
역대
당초
라면서
연주
독자
부품
네이버
동영상
부과
##화점
군인
##av
범행
##nn
서명
피하
매수
193
단어
150
실수
EU
경계
##드리
허가
리더
투명
상장
이기
이용자
부회장
트리
광고
느껴
합류
##ag
날씨
기부
벗어나
동생
옮겨
##일리
서민
단속
취하
고문
kst
스위
##란다
들어갔
힘든
이래
##담회
베트남
진실
축소
가졌
영장
폭탄
로봇
라운드
진보
채택
기분
경비
##ie
죽이
집계
경력
즐기
종목
##나다
전세
디지털
계산
시티
여의도
기울
올라가
고소
##싱턴
파견
##od
창출
마케팅
조기
56
2002
프레
성향
지불
전북
인공
열차
st
인원
모임
삭제
##피스
동맹
차관
##and
검증
유닛
봐야
##ir
공직
거듭
동부
눈물
지하철
상위
경북
편성
정식
고정
증상
할머니
CE
메르스
고발
모집
이라크
간담회
이자
필수
2003
승객
신체
매력
자율
이스라
수수료
완벽
파티
이내
홈런
매체
보낸
한데
##립니다
펼쳐
머물
출범
구하
서울대
상관
라디오
정해
거론
선임
스카
비행기
해졌
상처
워싱턴
청문회
이스라엘
거짓
클래
추적
예전
##파이
공포
수백
카카오
고기
01
꾸준히
폐쇄
공기
이론
했다
페이
한국인
확률
들어오
주력
##공사
유니
00
떨어져
64
마이크
계좌
##ia
취급
도중
이명박
못해
##op
누군가
커지
분쟁
도망
제목
실종
난민
지명
보관
미니
로마
장점
원전
##TE
##회의
떨어졌
마르
부실
한나라
괜찮
한나라당
전원
획득
돌파
라서
취재
물러
신호
최대한
##th
##메이션
99
키로
재무
늘리
증시
전개
캐나다
입주
공감
##CT
석유
재판부
자전
모여
다루
탑재
걸리
백화점
잇따
##러리
##구요
상호
##가락
두려
침해
57
학습
터키
내세
지진
기상
고요
58
##아지
균형
움직이
김정은
머니
##em
분명히
경찰관
장착
캠페인
결승
구분
안드
연습
질병
부총리
연말
카운
가을
총회
이틀
임무
단위
##이도
북부
패션
갖추
스탠
한정
상반기
끌어
최선
박물
선호
SNS
하반기
극장
밴드
##웨이
오브
목숨
달하
예약
인용
맞추
바꿔
##ers
그나마
뿌리
수집
진화
59
해제
배제
별로
##다면
당연히
부서
착용
입법
환율
이행
판정
항목
##iv
던지
개방
추세
미만
부지
##카드
예고
아빠
데려
##우드
합리
휴가
물량
임원
패턴
에어
선출
결의
계열사
마크
오프
플랫
에요
사드
운전자
끝난
무게
마감
지출
이건
테스트
한화
가입자
이슈
세종
조각
애니메이션
심장
주석
보증
스크
박물관
저렴
호남
대법원
아무리
##바로
대결
골프
수학
조종
극복
좋아
나눠
##스탄
키우
정치인
무려
##회사
광장
대만
곳곳
에이
점유
스피
재개
탈출
##로이드
기온
조지
교육부
현행
KBS
공산
구단
설득
영입
표정
통보
는다고
훼손
명확
MS
##um
승부
이민
숫자
놀이
자전거
##ut
민주주의
부사
전형
초대
클린
당부
이게
클라
늘어난
쓰러
교환
교류
조언
출입
##ab
부위
cm
필리
##시코
부당
##르트
아닙
##총장
수리
급여
신분
청원
##산물
복잡
일제
KB
배출
플러스
엘리
총재
요원
일요일
사안
##ec
블로그
커뮤
이른바
IP
바이러스
커뮤니
공중
답니다
쓰레
##무성
대답
투쟁
김종
버린
모자
간부
나요
##러운
편지
##권자
소수
스코
in
파워
실행
끝내
심판
조절
농업
후원
팀장
에게서
규칙
해상
외환
육성
세우
즉시
현대차
##너스
빠지
입학
대처
육군
증명
여러분
가동
해명
##라도
코드
매매
동반
변동
600
신설
적자
##어졌
근본
에스
벌금
가해
봉사
아무런
종종
텔레콤
만났
경찰청
생겼
서부
스티
적발
취약
못한다
업종
메뉴
논리
진다
쓰레기
면세
임기
원하
추락
본사
중학교
사우
김성
협의회
mm
자고
였으나
아쉬
선박
유기
광역
##마자
관람
투어
주주
치열
실현
지자
측정
##로드
거든
66
cnn
191
AP
십시오
은퇴
통해서
63
집권
노무
단기
더라구요
드래
정원
##ell
오염
줄어
아름다운
댓글
##려서
세워
현안
결코
대하
따뜻
바라보
뛰어
어울
2001
협조
##og
85
단순히
스트레스
##ill
##어도
청장
성분
건너
음성
일각
위주
가상
협약
서류
##ak
자면
합동
축하
회계
충남
FTA
데미지
생물
관객
흘러
##주시
1990
상상
공모
거두
사단
화려
찬성
대가
저장
자극
멕시코
개별
수록
위안부
유죄
실무
대폭
나타난
내린
해안
항공기
붙잡
미세
고서
중동
토요일
병력
주간
지연
자마자
백만
for
타자
토지
의하
박스
##트리
61
심의
점차
보급
과도
몬스터
성폭행
신속
잠재
62
보조금
대장
경기장
기원
자국
다녀
##워드
주거
페이지
로써
새롭
결합
철학
실업
연령
지내
저항
시사
마약
복합
고향
출석
반도
02
지대
##ov
##리스트
든지
파트너
마침
중대
진료
800
제정
##나이
이사장
대안
포르
생태
비대
##ath
올린
부활
##세대
외교부
##니어
허위
병사
강의
원작
국경
일어난
##조건
구제
바란다
면적
압도
세이
다행
어려워
95
명칭
##뜨리
일종
임신
##다른
br
허리
충북
붕괴
발굴
뛰어난
압수
내수
작동
훌륭
강원도
72
##프라
##데이트
지자체
징계
블루
수색
급증
업데이트
뮤지
장난
해진
투데이
교황
레드
폐기
들어간
여지
번역
공군
비례
CEO
##ard
학자
경향
줘야
시선
##ew
탄생
호흡
사이버
기독
지지율
양성
기금
시신
추구
그려
어깨
120
학부모
최악
불가피
모니
소위
##비드
종이
유형
금요일
실천
없다
주자
상하
##어져
당내
4000
정작
03
드러나
##다니
아닌가
브리핑
퇴직
컬러
##oc
배상
메인
참사
문제점
동네
중반
여겨
##피소
지표
의존
인류
공화국
아웃
포장
유권자
68
소련
무너
영양
그만큼
쓰이
압력
##ap
주최
나름
학대
멀리
67
무조건
충전
사냥
수영
est
출산
여유
사유
지주
일으키
된다면
인치
예요
돼지
토대
##베이
##르크
빼앗
아닐
사라지
고양이
진영
방사
애초
전역
마트
##ation
##리포
모으
하우스
하드
가끔
보완
발휘
세포
품질
월요일
총괄
손상
나쁜
##해서
살펴보
위키
표기
몇몇
##말로
침체
코치
못할
소화
상원
극단
역량
김현
조용
주행
로드
77
레스
개막
타이틀
MBC
해고
고대
강도
궁금
생겨
담보
내내
최신
받아들이
줍니다
화장실
두산
##스코
제주도
##ue
연봉
와이
계정
노사
메모
AI
St
활발
민원
도서관
192
명단
합격
항의
매입
나아가
기아
이집
##이너
이집트
##포트
클린턴
식물
경상
갖춘
회동
치명
의뢰
주위
차기
급격
파업
대학생
그곳
ch
매달
후속
화제
입찰
공격력
고교
초청
소셜
초과
집안
기독교
맞서
황제
남쪽
자식
이승
없애
풀이
일시
소프트웨어
700
정착
벌였
한때
뭔가
수립
온도
가게
사격
수급
##직원
싱글
아닙니다
표명
윈도
환영
##시마
남녀
##이크
유력
당일
법무부
휴대폰
디스플레이
가방
의결
##ine
마친
공시
살리
적합
유발
넘겨
흡수
안팎
아이디어
행보
무력
아카
김무성
여건
목격
73
계층
세부
76
방영
포스트
노무현
09
단장
##덜란드
네덜란드
베이징
전선
반박
서버
##ce
##지사
심하
발달
몰려
어린이집
마스터
신세
##케이션
고개
88
오랫
거든요
탑승
드라이
소형
일대
무상
단말
자라
회수
비즈
둘러싼
안드로이드
떠올
도달
부드
원유
##랍니다
신한
수천
평생
곧바로
데이비드
꺼내
일행
위하
해킹
면세점
소문
그쳤
플로
bl
과연
취득
전직
한미
##머리
71
74
나타내
##서트
교육감
해운
다섯
뒤집
##도로
전공
필리핀
비트
전설
이정
확실히
어떠
성우
##오르
정확히
테크
연예
오토
벌어지
##다보
제약
대단
보일
전투기
캘리포
초점
여객
즐길
캘리포니아
파크
2020
에피소
에피소드
학과
##타인
납치
주재
풍부
복수
84
끼리
부사장
교도
희생자
배터리
논문
미국인
소지
며칠
##스티
지나치
선거구
##다수
##입니다
밝혀졌
냐고
적어도
개봉
공통
평등
산하
조항
이어질
최소한
##힌다
190
지위
스키
직무
평양
바랍니다
영향력
##ht
웃음
논쟁
아우
증인
기재
보육
CJ
98
공주
맥주
상업
##아내
주체
일찍
모니터
입원
강요
윌리
우크
워낙
연맹
오늘날
돌아오
##ev
주기
##으니
증언
출장
위성
인프라
1980
시원
##일랜드
발동
알렉
조명
대학원
북쪽
돌리
이혼
기름
비서관
69
보험료
신임
찾아가
의학
여서
현역
응원
고령
들이
인재
이중
순환
공제
유치원
##워서
감옥
지법
시인
난이도
##은이
콘서트
6000
비전
부작
08
격차
오랫동안
경위
선전
##에도
대량
재정부
여권
##디아
구도
그게
장식
##바이
##연히
시트
너무나
전당
al
아스
남기
남겨
농협
즉각
깨끗
일방
마이클
유입
사무총장
##아버지
전주
신중
책임자
입증
##평양
음료
스튜
직면
그럴
대원
연관
맞이
##ter
데일리
통하
천안
총기
화이트
라이브
LTE
봐도
플래
항소
충청
문화재
상환
진상
나설
05
전후
##ob
패치
변신
비정
거치
권고
78
86
연료
미친
노리
##항공
지검
대립
이주
견해
간호
##공업
##임스
##버그
이어졌
종로
백악
실망
무릎
로켓
기도
소모
펼치
신화
공략
목록
행정부
눈길
대행
부패
공세
수능
에다
열렸
스위스
모른다
김대
피아
속성
시청자
연극
어찌
빠진
건조
고도
##ey
조심
##리티
대다수
링크
##IA
##란히
이닝
거절
채무
##가스
타워
골드
실내
비록
상자
작곡
넘어가
크림
예금
##그룹
##레인
부자
경매
사이즈
판매량
재난
06
휴식
만남
방위
1999
보여준다
보존
IM
당사자
자문
아메
굳이
옵션
프라이
화물
무한
살짝
91
한지
점령
대해선
품목
윤리
성남
아트
제임스
언니
The
잠수
태국
리버
재생
포켓
##블릿
둘째
공인
추측
전제
시달
07
아라
프리미엄
인정받
기후
##버트
일치
비즈니스
상당수
타입
테마
관찰
착수
미스터
##정부
8000
쉬운
담긴
청사
민생
지침
양측
협박
에겐
영토
무사
정하
음주
밀리
평창
시범
필드
단말기
대대
규명
이모
##트로
탈락
금감
이성
입구
추석
약물
특검
몰랐
구현
박정
화요일
가시
용기
대상자
카이
이적
아일랜드
지역구
느낄
히로
도구
상무
개통
크루
평범
기조
반도체
일어났
장군
눈치
그걸
화성
국세
백악관
##if
도심
##art
장악
관세
깊이
스케
##EC
1998
향하
밀려
##네시아
거래소
레인
맞춤
소스
행진
불렀
벤처
버튼
그저
떠난
##30
공작
벌써
크리스마스
풍경
포착
시계
조달
걸로
선진국
갈수록
엔터
체크
##all
포럼
그간
냄새
##실험
커뮤니티
분열
7000
되돌
경로
81
동성
나갔
참가자
##런스
연휴
존중
##피아
##체스터
하위
전사
시급
주관
재벌
Ch
지인
태블릿
확신
오스트
재건
##ub
그럼에도
워크
드러내
김태
발급
##학자
부적
전작
측근
순수
고유
비하
상대방
걸어
바이오
섭취
##ip
스웨
핵실험
게이
윌리엄
노동당
개설
무서
##키스탄
복원
매니
마주
구청
엄격
얼음
떠났
사원
변수
04
어른
스프
현황
블록
피고
보좌
설비
포항
케이블
과세
안심
동해
젊은이
특이
용의자
마사
동작
심한
비정규
원정
느라
대륙
82
헤드
좋아하
철회
구상
##조합
걸려
흥미
철수
봅니다
당원
CN
시나
응급
회전
중구
##용차
각국
통신사
유아
1997
강경
천억
사령관
근육
질서
관리자
테이블
배당
비정규직
버린다
는다면
지닌
뮤지컬
지켜보
북미
호기
랜드
접속
경주
250
96
용어
##거래
몰아
메이저
단점
점심
보입니다
회피
인도네시아
주차장
페르
국무총리
공동체
미션
이메
개헌
##로운
황금
녹색
체육관
숨진
##메달
줄여
수면
유승
##티나
인종
##SA
79
미드
서초
가이드
독특
막대
화장품
특위
데리
박지
바른
##환경
사망자
오스
##그레이드
업그레이드
통증
붙여
아이돌
관여
트럭
흔히
민감
피트
연수
세웠
겨냥
##일러
화폐
사무소
##어트
히트
근접
##ang
##교육
거짓말
##스턴
미소
97
비싼
편안
겨우
오해
유동
소요
동양
웨이
서쪽
금감원
87
##ED
촉진
행성
##려야
이메일
선두
귀국
적당
대거
내각
앞둔
##까요
동력
가사
관점
목요일
소중
중독
널리
가깝
농장
어려울
줄어든
생성
수요일
미스
이종
탈당
용인
OS
공학
부작용
##비전
부딪
아군
터미
##남도
지난주
미칠
견제
본래
상인
플라
쟁점
농가
베스트
무선
##증권
수지
돌아온
마일
대사관
각자
메일
손가락
##ack
원자력
##먼지
스페
##CTV
대외
포트
실태
FC
출근
유전자
신동
빨간
포드
워치
엑스
특유
빠졌
인형
CCTV
화력
서구
가짜
##튜브
크로
길이
##동생
kg
94
요건
다면서
텐데
가속
으니까
과일
끔찍
베르
##병대
주한
##으면
태풍
프라
유튜브
##사고
프린
라이트
코스피
패널
설문
변하
고전
입력
감동
장교
예선
##포르
중국인
##ula
지지자
복무
정무
##대문
서해
92
들어서
지니
신라
고리
한국어
잇따라
우울
그랬
편하
국당
누적
청주
생일
맨체스터
89
금속
리스트
수당
이뤄졌
됐으며
만날
전파
과학자
먹이
구멍
고시
걸렸
유행
살아남
학기
중부
정황
유족
##ik
실시간
색상
흐르
와인
중도
전차
무죄
노후
초래
전술
##관리
아랍
미세먼지
유해
일원
올바
일자
드래곤
누르
사용자
##브리
감각
아무것
그라
치러
표면
##토리
강세
가문
시중
한글
##북도
느낀
느꼈
버프
유대
한겨
##다리
흔적
금품
양식
목사
수시
사형
간다
용도
달했
후기
한도
한겨레
상실
건수
시체
어쩔
승진
리포트
태어난
정면
유용
##ph
왕자
흡연
재미있
녀석
억제
용산
왜곡
주류
명백
혹시
부각
가질
##라리
이랑
도덕
운명
해방
뱅크
천연
180
면접
드립니다
낮추
첨단
##FA
다름
이루어지
작중
받아들여
도박
뮤직
편리
불거
무관
장사
내정
추모
##틀랜드
83
증세
양상
계단
당분
왕국
터미널
form
포스코
구경
오류
##져서
교실
출동
태평양
##디션
여왕
케이스
빌려
이걸
순서
김치
##ong
마켓
배달
강사
실점
하고
날아
당해
둔화
조세
오버
농민
철저히
음반
나쁘
뇌물
방치
에서부터
익숙
##DP
잡지
포켓몬
##매매
마쳤
결심
어쩌
관행
영구
기동
복구
수위
배송
문의
가볍
김동
##ps
동남
##OS
장례
최우
리스크
중계
지나가
이끄
그날
유산
납부
피의자
흑인
우리나라
##ok
대체로
가벼
성추
해수
바람직
공방
클릭
멀티
대주
지목
선배
패스
스웨덴
##bs
여사
상공
싱가
싱가포르
돌입
트레이
놀라운
##수색
건전
해경
무산
끊임
뚜렷
로비
속하
아마도
조만
시정
##ah
구호
##덩이
잖아
소식통
성추행
반성
사내
간사
승용차
이젠
##퍼스
쏟아
어두
치르
그레이
하원
멈추
핸드
93
고지
파운드
침대
될지
역전
면허
늘어났
증권사
매도
멋진
손님
##oh
##위원
넘기
문장
토론회
정밀
신선
지낸
##사스
과목
압수수색
괴롭
들려
셔서
이거
융합
가공
아사
조약
명시
절감
##어리
예산안
1995
바위
좌우
##아리
계급
202
별다른
중공업
저널
심화
사거리
1970
formula
통치
미터
폭풍
솔직
시킨다
진지
월급
드릴
빌딩
수습
##ct
부시
항공사
스트라이
잉글
국내외
모았
무인
홀로
자제
뜨거운
우유
적응
출처
북측
창원
김재
고수
선보이
학회
임직원
해변
상승세
유세
예외
모색
들어온
시나리오
헬기
##시안
으려고
친환경
김기
위축
코너
포털
##고리
건지
##트라
양산
##ry
##일보
당선인
명의
공정위
조만간
버그
신부
재능
깔끔
시위대
서양
할아버지
sh
철거
검거
체인
남아
중순
스테이지
장갑
범인
동쪽
##로나
문구
텍사스
제이
암살
퀘스트
네티
월세
원리
김용
동북
당황
대금
건립
개시
소음
티켓
물품
들어갈
어울리
챙겨
당분간
호수
보인
간접
차장
고생
남겼
제어
날개
일관
전담
창작
소매
리스
마침내
##핵화
비핵화
해체
기어
자사
야생
위장
연평
무렵
부양
##어버
외모
1996
타임스
네티즌
갤러리
##더스
일으켰
더군
요금제
터치
본회의
커플
강점
상한
승무원
코트
상향
지냈
스파
##ee
##NA
제조업
바뀐
##tt
비타
입지
중화
저자
감사원
디자이너
영혼
##직자
양자
악마
영원
900
새해
##루스
구요
불교
추억
에드
되찾
사후
비극
vs
클래식
엔딩
##생활
##친다
중재
버려
배려
문건
높였
개조
합쳐
솔로
더블
열정
신인
그래픽
본선
비싸
중점
마당
기대감
오가
일으킨
대국
이렇
옮기
저작
신발
스코틀랜드
모래
##시다
심해
##연합
주사
사라졌
정서
걸음
일반인
마비
기체
잠깐
유승민
라스
면역
포지
드론
고르
##ich
##져야
현직
독재
텔레비전
장르
지원금
##둥이
아키
혈액
농촌
피고인
박수
##톨릭
중고
이뤄진
교섭
##트롤
##레이션
정수
발목
식민
math
수감
면담
웨스트
총격
1994
발전소
반군
##워하
가난
th
향한
자꾸
몰래
스미
사립
동참
오빠
##야마
충족
세운
숨겨
배포
가맹
언제나
참조
지리
##man
입국
높여
경영자
태어나
위상
명목
NH
##ark
나이트
코스닥
와중
강연
모터
내려가
##머스
##ess
##ist
농구
터지
실정
액션
둘러싸
그야
130
CBS
지향
민심
일환
시드
브라운
옛날
##마디
일간
간주
녹음
걸린
위력
어둠
성매매
본질
강간
때리
매출액
브레이
##est
189
폴란드
and
프로세
우위
##받침
코어
9000
강행
외무
##와서
##IS
프리미어
탈퇴
역임
근데
회관
등판
중개
수주
스카이
국적
그러니까
습관
##소득
뒤늦
유학
그치
납품
진심
컨설
첼시
사물
포토
가해자
드레스
관할
구성원
발효
박계
구름
위대
잉글랜드
부하
GS
국세청
부근
상가
합법
최후
해질
##끄러
포스팅
##ian
무효
커버
편입
유가족
##크스
선보였
재배
노르
담겨
카르
육아
파키스탄
##래도
클라우드
편의점
##ord
용역
베이스
야마
재직
##오프
한쪽
살아가
스크린
의외
별명
후쿠
달한다
트랙
비자
그야말로
패러
클래스
소금
##범죄
격려
독점
클리
확충
밀어
##ight
면제
골목
##잡이
명성
입건
챙기
버락
기상청
김대중
##건설
열린다
반란
그램
국면
SBS
든다
장학
한강
벌어졌
##our
석방
##ate
##문화
단축
신입
여신
일본인
아무래도
아가
등등
함정
당국자
강릉
##ne
나간
운송
상점
담당자
당첨
드러난
정규직
교도소
고조
선제
주유
자매
##들이
모른
엄청나
트레
결혼식
##이즈
통일부
따지
달아
부가
미술관
오피스
용품
최상
진흥
감지
의자
침입
횡령
깜짝
궁극
원고
독도
센서
꼬리
##ick
감축
야간
동향
여파
날짜
##널드
분당
수년
탄핵
채워
무언
##키지
정의당
수송
숨지
MB
크리
컨트롤
최강
크로스
온갖
가톨릭
##바지
신기
늘어날
더라고
IC
억울
폭스
아나
알아보
장수
비타민
대강
사찰
쇼핑몰
채우
뒷받침
##루션
가드
한번
아르헨
##다란
신장
##모토
식량
진전
양쪽
이산
나타냈
인테
청산
끌어올
##화문
119
스튜디오
아르헨티나
패키지
##보드
FA
베네
인디
##80
맛집
특별법
돌아왔
내역
박원
올바른
소유자
드러냈
세탁
횟수
배틀
리얼
군수
##ss
##bc
저지른
미안
몰리
거친
대피
체중
캠퍼스
##성장
루트
사인
##ef
정세
브로
##나가
중립
약한
##PS
타운
서방
노예
환상
리조
용량
김진
점프
잠수함
회원국
보석
전방
어선
가하
예수
카운티
수호
한층
문명
스펙
##패드
터널
출국
##ast
자회사
빌리
객관
마땅
다행히
관료
교장
고장
두드
치즈
전적
붙이
김상
그건
명품
원주
부리
참모
매니저
출자
상식
신세계
말레이
110
트렌
군단
비대위
매치
연예인
##저스
추격
벌어진
자세히
위로
치킨
대미지
으라
소집
마드리
대목
스타트
오사
전무
함대
##오스
금강
##바닥
권위
먼지
첫째
마드리드
태어났
무용
해진다
##단체
모씨
추산
1992
기각
운항
##무기
적정
조율
수장
만기
약화
배정
색깔
##지능
인공지능
후배
구나
새끼
경유
이득
공직자
군부
의약
##이터
##마크
명분
선사
CNN
스파이
의상
최적
바깥
소니
이념
조리
계절
CD
광범
남긴
강남구
수렴
슬로
명절
아쉽
대항
연상
##닉스
좌석
폭격
##스키
우크라
플로리
불량
법조
연인
##eg
제조사
프레임
메모리
가려
공고
유나이
##ud
투기
저런
차질
유나이티
##리케이션
##합니다
블라
격리
NC
세제
##iz
흘리
1993
청약
파란
이뤄질
세무
무언가
시상
##어질
생길
삭감
푸른
학살
출생
##위원회
개발자
외치
한참
학위
교통사고
단행
##낸다
벌인
기아차
궤도
리버풀
조종사
보복
Mr
경보
피터
진주
장거리
##멘트
##ert
포지션
살려
유연
루이스
연합회
유인
칭찬
푸틴
단원
##지부
개장
이수
성폭력
해임
주파
보여준
스탠드
제로
쿠바
신사
리조트
##차례
국산
분할
버티
어쨌
In
김경
고백
노스
##먼트
저소득
정성
일러
취해
사자
라이프
##가루
##어로
공조
타이어
GDP
US
교차
침몰
한국은행
노란
파라
정국
복용
실리
개그
레이스
학술
내장
콜라
충실
해리
내다
부착
##ort
광범위
감자
내릴
인연
업자
IMF
생계
존경
발레
##으로
상사
##ant
병역
급등
타점
서술
한마디
헤이
흥행
습격
리드
##PG
다이어트
창문
리더십
입시
제자
전시회
이리
갈라
##번에
히어로
재원
매주
내놨
환경부
##ib
BM
노동부
냉장
계시
고구
지형
근대
##아웃
GB
파문
해산
조합원
계승
다를
다크
재발
##60
사면
범죄자
주먹
##ge
종족
여담
선장
##미터
모험
##운동
조화
잘라
불꽃
1500
진압
##센트
인데요
##랑이
귀족
스티븐
간호사
로버트
일본군
시공
춘천
사령부
성실
교통부
아리
재판소
##oy
다가오
##운전
인명
내주
늘려
바지
1960
출구
사우디
조례
게이트
저질
창고
통장
##ER
점포
이듬
음모
급격히
숨졌
##ity
##데스
처지
##아시아
우드
구해
글자
알파
말레이시아
시가
모스크
바퀴
배신
갖춰
지능
외면
바르셀
즐거
바르셀로나
전송
여수
커다란
1991
플로리다
HD
수여
160
괴물
느냐는
그러면
야외
김해
최다
피로
건데
##밀히
떠오르
전신
이지
##데미
##저히
채소
감상
##여금
포르투
마스크
종전
끊임없이
감독원
더라고요
두려움
전라
흉기
tv
자발
탄소
뛰어나
저하
커졌
가중
득표
상세
택배
차트
##프리카
##ain
트로
변형
종로구
지부
##드라
노총
아이패드
위탁
주연
공습
연루
추경
특화
제압
내비
개소
날리
돼서
합성
거래량
이듬해
1988
New
행태
##몬드
스토어
가전
이사회
##부르크
레이더
##io
낭비
대치
을까요
서기
급속
자위
첫날
만일
인테리어
할까
약점
섬유
숙박
외신
스캔
조속
던져
아카데미
계파
동계
아마존
침묵
때려
방통
비치
오로
##어진다
도주
농도
모은
리비아
이치
##기에
동결
올릴
보전
몰라
일어날
관절
##라이언
제보
앞세
마틴
##니스탄
시달리
to
자칫
지르
위조
가벼운
강해
동화
게시판
키스
영감
##eb
연재
정말로
흥국
과잉
일까
흑자
광화문
나뉘
아메리카
입수
달린
급식
렌즈
결성
남용
예쁜
중지
최경
이른다
자영
피할
줄기
물류
으시
##하면
병행
들리
유전
산책
공산당
표지
넘치
공익
유효
깨달
140
##son
이송
성사
꼽히
전월
금호
케어
재계
다스
과감
창당
차세대
성범죄
응답자
창의
GM
출력
키워
참전
중견
탱크
##매도
부러
영광
탐사
시카
수명
유적
모리
보편
별개
타인
김정일
드림
거점
처형
제고
SD
김민
그릇
등지
한동안
반전
막판
스킨
일가
넥센
고가
사양
정통
이례
난다
그런지
장성
##라이나
들어왔
토록
파고
중앙은행
백인
앞장
착륙
원조
에볼
유물
의류
분산
핵무기
##구나
##징금
걸릴
만만
발의
국채
승강
안타까
평택
여인
내달
부스
원활
코미
펼쳤
갑작
SM
치유
연도
공기업
변호인
흔들리
은하
##40
유래
무덤
던전
소원
무지
귀여
당뇨
일련
내보
모니터링
FI
나눔
##sh
등록금
기차
공헌
레이저
예쁘
똑같이
하얀
이병
전격
증진
정관
발라
학문
끌려
수차례
##긴다
##이치
대주주
드디어
캠핑
##ng
그랜드
이뤄지지
타결
드물
노벨
KIA
통행
식민지
여동생
신상
시행령
분량
우편
주파수
암호
서식
유로존
시아
답답
세르
아프가
논평
바꿀
##제품
떨어진다
처방
올라오
푸드
보드
선원
폴리
이쪽
치매
불행
불신
결승전
##셔널
안보리
구원
김일
안경
혐오
나와서
벨기에
보좌관
재고
꼽힌다
주유소
교원
에이스
그림자
##성기
아티
과시
번지
사로
아프가니스탄
한창
이길
구급
##배우
양보
or
곤란
빈곤
백신
마리아
핑크
장려
리라
한진
박정희
대지
##릭스
사회주의
미쳤
크루즈
오마
##키아
##바라
고추
공업
기한
급락
민중
앤드
입사
성립
선도
댄스
애플리케이션
군주
##가리
내외
진학
리뷰
고인
컨셉
창립
선거법
##스트라
오스트리아
게재
##70
양육
자영업
마구
알코
IB
대개
##ore
책정
미지
빨라
쇄신
1989
내다봤
저격
##둘러
금메달
매트
염두
아시안
단백
탄력
가르치
입니까
타당
잠실
관해
유감
불안감
나아
트라
고무
이마트
요새
공판
꼼꼼
스런
머무
순천
##지니어
수산
컨설팅
장병
내전
스리
당사
박영
보너스
고사
지붕
시세
데이트
고스
구석
날려
아니면
클리어
모금
어리
놓치
부른다
선대
종시
골라
축산
##se
특별히
이견
요시
팔레스
순이
수분
스님
연애
자이
##ont
언덕
##평가
우세
##aw
농담
안건
재건축
김포
왜냐
오를
1987
보낼
설탕
팔레스타인
하트
소멸
red
하수
소득세
임의
##슬림
실효
원한다
101
계란
여학생
mc
선포
도약
##시간
니다
바닷
이룬
정교
무슬림
##ep
송파
수령
의석
주부
거세
비주
ms
베를
공지
##러드
엇갈
##ff
##현진
##구리
자택
보병
시골
일지
이영
증후
건의
##백과
알코올
##스티벌
약세
국군
페스티벌
출판사
특혜
천문
임상
왕실
반사
##관위
##유럽
사운드
소외
일기
발음
물고기
줄일
##래프트
힘입
방한
전대
위생
벨트
도둑
의약품
상속
대법관
스터
준수
직장인
Al
##포구
시진
트래
박원순
방학
추방
화합
AF
수험
친절
획정
크라
후임
닥터
깨닫
라이벌
수법
성명서
연동
카타
감면
포르투갈
시술
떨어질
이어진
고의
낚시
##원장
다이아
is
##uc
벌여
증후군
세미
오직
나란히
단단
상임위
산림
잡아
사이드
##식간
완공
탐지
메가
청탁
솔루션
사임
도널드
디젤
화상
전장
공백
잃어버
반지
스미스
##질랜드
안산
뉴질랜드
사라진
##물산
우스
극심
흰색
촛불
##티아
##행위
BBC
##집니다
##란시스
성당
데스
개척
단백질
집값
간편
신생
무척
어두운
아픈
아끼
삼성물산
형편
스러워
실명
가맹점
건담
중시
수신
경호
##네스
침략
하향
러브
오리지
플랜
##ass
일부러
함유
각성
서브
으론
목포
놓여
헤어
순식간
물러나
관중
시한
##고속
대한항공
까다
폭로
우회
계곡
건국
##본부
한자
숙소
영등
한꺼
한꺼번에
어쨌든
동성애
##풀이
차라리
##ith
옹호
박람
휴일
동행
신성
##유예
음식점
골든
허락
책임지
보험금
##광역
재학
감성
가만
맡기
가라
신원
상정
고고
유럽연합
보컬
기쁨
체감
##산부
부수
##옵니다
지옥
한은
수소
통로
##뉴스
언젠
입단
PD
##ive
포괄
위키백과
양념
재현
부유
반환
신앙
##디언
절망
국감
항구
극대
##두르
어릴
대박
안녕
주전
동구
시진핑
사우스
불명
복장
대역
즐겨
이겨
유독
중산
##어요
##광역시
마이너스
조국
부도
원화
##단지
담화
##up
##바이트
연세대
보강
##다지
NA
취향
충성
트렌드
기법
##ley
용서
당당
##페라
모를
어려웠
##처럼
디스크
마력
장례식
인문
상생
사업장
##end
노트북
출간
사로잡
유료
종일
좌절
요양
말리
##토랑
반격
기적
레스토랑
참석자
딜러
서서
낸다
주방
결함
기울이
민영
자신감
시카고
SS
미루
권유
알렉산
대략
들어와
사흘
프랜
감당
삼국
무더
드라이브
농산물
##슬러
화보
열릴
도대
영리
알레
위해선
앞선
치안
파장
대조
시켜야
어차
감수
순찰
세인트
인질
냉장고
피우
나치
해설
안타깝
아이스
쌍용
갑작스
모이
도우
카라
억지
##ran
해역
보물
금연
버릴
CP
의해서
협동
자선
간격
다룬
##릅니다
적대
우연히
가담
외곽
마디
아저
sp
검출
스피드
##세요
실용
등산
때로
플라스
##임금
제법
마인
애정
당할
어차피
트윗
##베스
텐트
각오
하나님
상용
포도
원천
영남
믿음
고속도로
시너지
SU
아저씨
##어스
익명
잠정
##ood
김수
도대체
취한
노동조합
결단
과반
반려
신조
국무부
가루
반기
표결
사연
의제
개체
수비수
본문
처장
탄도
인접
중복
마라
메리
입양
뛰어넘
내게
산정
정한
취재진
발령
오랜만
제네
몽골
진도
대표단
더러
두드러
가까워
##ind
지경
부추
토리
상영
법제
기원전
더군요
증대
de
아까
##NG
##조리
레전
피자
조회
가죽
리치
BMW
악용
잔인
불참
체류
풀려
영화제
응시
공립
벤치
보충
국민은행
돌보
호평
강아지
꼬집
자진
가져가
업적
교역
확고
육체
클레
##테크
여전
레알
랍니다
일러스트
후회
포로
오사카
루이
파도
엔지니어
확립
의료진
모기
광복
그렇지만
유포
전산
제발
일선
시야
미뤄
188
브루
장벽
이식
한가
당선자
휘발
우울증
보트
한두
으러
언젠가
##타임
수시로
생존자
전지
구별
심정
바꾼
170
제휴
대수
뛰어들
경영진
경사
허브
애매
장난감
포즈
안쪽
나빠
그다지
건네
국어
##스카
재활
치솟
주의자
약하
##CC
이태
써야
##ton
연승
발병
타이밍
관장
퇴근
후지
##보이
##노스
위법
타율
남한
지났
친척
코레
니콜
HP
##란시스코
화염
혼합
오리지널
보건복
##뜨렸
제의
피아노
오프라인
예능
박지원
으려는
##공항
일체
나타난다
상봉
에릭
검정
##LL
전액
마법사
에볼라
약자
신비
리모
자책
누나
##걸이
우호
클로
홀딩
커질
천천
헌신
##10
오페라
거뒀
부재
사각
##니스트
응용
풀리
무너지
통사
방출
##일즈
거래일
박람회
김종인
남양
만성
배우자
##시장
존슨
봉인
이루어진
물려
Sh
인쇄
1950
대검
던졌
SP
어지
LA
아쉬움
드렸
##온다
배럴
퍼지
모스크바
천천히
##인물
성형
초콜
선행
십자
홍준
OEC
배심
약해
한류
##든지
농림
화살
##TI
연내
물체
감기
해법
블룸
OECD
열쇠
세수
부천
##박스
업소
원가
##어놓
정전
어르
즐거운
접하
여섯
랭킹
광부
잖아요
과태
오일
시전
애국
기증
기종
이민자
죄송
전임
##TV
로즈
화해
따져
수확
김일성
왜냐하면
달라지
토끼
법령
독서
112
보증금
눌러
실체
노하
고려대
##ly
과태료
되게
학급
상륙
ar
넘어서
##프리
인턴
스페셜
전염
지우
홍준표
양심
주지사
도청
마늘
숨기
호응
광산
철강
대공
##EA
싱크
감추
보행
전교
비박
##OC
검진
할리
특사
##외선
수상자
PS
관람객
법인세
따위
토마
조카
슬픔
전철
##세포
국왕
스톤
베를린
중기
##레나
건설사
방패
##가족
화산
분포
류현진
##거나
예술가
타협
구미
동굴
인선
사막
##럴드
최저임금
거둔
산소
내세우
인체
재선
총수
최경환
김광
연준
##베리
이럴
you
잡히
삼진
안개
토로
감찰
교정
세입
빅토
소폭
적립
돌아와
새겨
연패
레전드
분담
갈아
순이익
금방
이를
빛나
##스팅
주머니
동서
신년
홍수
음원
방송사
고립
이완
인텔
유혹
이대
복제
##아이
##ex
간판
조류
##키퍼
준공
출현
모욕
그해
무서운
무거운
미얀
일으켜
전기차
무단
단호
공소
기장
골키퍼
원단
방어력
1986
못지
파산
즐겁
다운로드
은지
려던
무난
발송
##금리
명회
플라스틱
토너
거울
로고
민정
추출
##데타
절실
##MC
아름답
브레이크
발간
부적절
구두
리어
코믹
고집
미용
볼넷
해병대
지혜
오토바이
팔리
서서히
스노
##가운
나선다
플레이오프
보스턴
주고
##ire
쌍둥이
과실
##na
장학금
중진
리서
적혀
##레이터
멸망
##ust
찾아보
기성
강력히
포격
에르
유방
정찰
##인지
보건복지부
적시
태세
직권
성장세
다녔
분배
으신
지문
휩싸
예의
##ug
자존
시상식
미흡
어르신
이스트
정산
임대료
열기
고마
진로
듀얼
만주
혈압
카운터
한전
##세이
부드럽
믹스
한방
연비
전경
리아
집행유예
재밌
초월
##리즘
영하
구출
350
아닌지
써서
재해
치아
웨어
레오
권장
DNA
닷컴
욕설
##구니
##ber
TF
옮겼
##밀리
##봐야
외출
쿠데타
상단
기술력
디아
리서치
민사
##브리드
##ban
이브
망명
쏟아지
방면
한다며
터져
##ock
하이브리드
수백만
유니폼
반해
##바다
하락세
마나
원료
해결책
유예
왕조
고위급
일당
상기
잡혀
등장인물
당기
바보
부드러운
맥락
사제
누워
전이
알뜰
여주
호랑이
AR
피스
무제
카카오톡
htt
백성
기운
호르
자르
거품
기습
##그라
맞물
소홀
라인업
형상
통산
##qu
최우선
자민
후퇴
유망
정보원
##pic
##ohn
시비
토니
칼리
관심사
박주
꿈꾸
ST
이인
##오리
모인
샌프
샌프란시스코
베이비
원형
주둔
토크
들어간다
강동
##어넣
우정
기둥
저소득층
가뭄
남동
기숙
브렉
##af
묘지
신축
장기간
정례
착각
빌라
저주
한중
정복
김한
AT
액수
의정부
절대로
흥분
소총
하도
VR
##시피
메달
잭슨
권총
구할
##놀이
걸친
##센터
교전
려다
신탁
덴마크
자본주의
방역
넘어섰
선관위
종사자
랭크
ph
정류
구사
양파
워터
유성
노르웨이
호흡기
힐러리
소방관
고속도
과다
박탈
다짐
운반
사료
모양새
에버
##OR
정해진
##로우
발주
연이
주고받
만료
헌재
아크
고스란히
좌파
##pg
운동가
##퍼런스
스티브
인건
자아
김지
학력
서초구
추후
섹스
구형
내지
##르기
##끄럽
일본어
딱히
상금
조짐
기쁘
두루
생산량
186
관통
상관없이
일일
자부
건가
##az
아닐까
구리
결의안
##구역
1985
실전
##무라
노숙
필립
##업자
스타트업
승격
근절
상주
추첨
동북아
늑대
방북
##플레이션
손자
##신저
##IC
대포
나노
다큐
입자
휴게
판타
과자
공룡
초콜릿
열악
티어
추위
##욕장
px
##IP
협업
활력
두려워
##연구
따라가
최순
간식
이루어져
대리점
조용히
##유산
환승
샌드
선수단
석탄
보단
천재
##자치
주저
News
여대
일산
파격
준다는
책상
내려오
온다
처한
전진
불황
소주
전동
취할
인건비
바둑
소극
후손
##치기
모순
광역시
##르드
##투스
바꿨
낙하
신혼
가면
영주
장인
기뻐
blue
후계
입히
생생
배후
중형
침공
코스트
여고
사업비
안다
아티스트
언론사
지휘관
센트
##AR
안양
##서리
질의
으려면
유령
구로
접종
문단
수강
초등학생
자격증
돌아다니
도저히
베리
메탈
알렸
항소심
##베르
지갑
우즈
축적
단체장
쓴다
##DI
스프링
휘발유
은폐
트랜
농사
입대
복지부
스트라이커
모티브
유의
상해
져서
양도
투구
##북자
나타날
마신
##렉션
1984
미얀마
연쇄
탄압
헬스
정유
미성
은근
이어져
마냥
수사관
격렬
##one
지장
엄중
어치
증가세
관악
##쳐서
##산업
모토
창설
NP
EC
매번
떠날
일제히
##교통
##진보
그러므로
모범
고치
동포
평론
장마
고성
홀딩스
##하나
도출
금강산
열풍
미네
까닭
끌어들
##중국
전락
정동
DJ
조상
##베이터
출고
총액
김병
가요
##바람
스쿨
구장
맞대
언더
우라
살균
솔직히
원소
블룸버그
전처
메이크
스틸
케리
태우
존스
저지르
##운다
블리
할당
혈관
국회법
맞춘
회상
날아가
187
실버
##싸움
태극
목욕
프란
장미
각지
아바
인격
로그
언론인
구금
그만두
##우리
놀랍
기호
짐작
가이드라인
조립
군산
부를
##먼스
돌아갔
생애
이겼
상품권
상시
언스
페널
토마스
회생
공안
비닐
찰스
ww
높일
셋째
농성
##진보당
윈도우
납득
분과
360
도모
아르바이트
서면
수혜
한양
##세자
스승
임용
이윤
정화
육박
방문객
악기
##요타
악재
마루
집착
##나타
##ice
아쉬운
##영향
희귀
끊이
이석
샤오
##OU
계약서
머물렀
져야
파이어
태그
더욱이
공문
신흥
해선
##니즘
부풀
권단
익스
파손
##미르
관계없이
##든가
합작
발탁
오렌
카지
선교
감싸
테니스
비스
SC
##하라
진동
모시
##ect
실종자
노하우
KTX
ICT
울리
일어
세미나
해지
입금
다툼
반짝
육상
##90
장남
포스터
kt
넥슨
##카락
광명
머리카락
팀원
법칙
가혹
선체
배심원
욕심
피크
재차
고래
놀랐
영문
비해서
밸런스
피난
웹툰
대단히
소액
어쩌면
통합진보당
에어컨
지상파
an
메신저
천사
세계관
Th
모형
낙찰
##기금
취했
대세
인조
am
여우
매월
##저기
캐스팅
105
LED
처치
모션
제작진
슈팅
##레드
아산
원거리
여기저기
채팅
##ae
오키
보정
케이크
폭염
다이아몬드
나카
##커스
자정
대권
경제학
##천군
답했
##관계
훔친
바쁜
대타
콜로
술집
보이스
드린다
불공
역설
가만히
1982
머신
MC
음란
물어
연체
관광지
취미
성질
침투
##코드
통계청
가리키
당과
욕구
후보자
잃어버린
몸매
엉덩이
##MA
수직
불린다
이마
헝가리
드문
파동
미나
줘서
커뮤니케이션
전두
해치
##숭이
연합군
아닌데
배수
서둘러
입맛
차선
114
강정
보훈
##와이
백제
돌연
내걸
민간인
끝날
전례
견인
##저우
퍼져
병기
헤럴드
운동장
외상
군데
황당
세련
어긋
##특별
튼튼
넘겼
II
불쾌
평일
더구나
접어들
돌아갈
회로
초보
이산가족
##스트리트
AS
귀환
mar
떠올리
연안
식별
##도르
그루
##즈니
##OP
항해
서점
학계
##ver
권역
##쿠라
마술
신도
단서
##ld
프레스
오렌지
전복
##ach
죽인
오케
승강장
쿠키
나눈
소방서
전수
절약
달콤
천장
사마
가산
과징금
거액
행장
셔츠
건축물
정부군
송금
인지도
마녀
앞당
아픔
심상
UN
기점
야기
만찬
신종
알바
창구
##디스
헨리
강렬
애완
마리오
생선
파생
채취
죽여
퍼포
비로
타카
명문
셔야
퍼포먼스
정문
##ear
눈앞
밀도
치가
원했
고쳐
박종
약정
##듀서
프로듀서
##본다
진행할
종업
경관
골자
영동
주역
처해
##TS
작곡가
둘러보
내정자
일일이
밀양
1200
되풀이
분해
연소
여객기
국고
대놓
규탄
상습
##타이
월스트리트
타선
무작
표적
도내
방송국
##ail
너희
강서
##끄러운
정진
치우
여배우
인양
벤츠
날카
강수
미야
쫓겨
국기
확진
어우
박차
특보
동지
소울
을수록
용사
단식
열매
느리
극히
명동
SW
##에르
제트
선명
손쉽
jpg
선보인
쌓여
시일
메트로
니스
##테일
게스트
추종
1983
캐롤
컨텐츠
맥스
악수
##철도
1979
내륙
원심
돌진
조준
손목
동대문
##지대
객실
연일
열려
신용카드
소용
주권
##걸음
제치
올라왔
승자
겹치
공감대
됐으나
원피스
초록
학년도
였을
냉동
부른
##의사
저질렀
노사정
기용
이력
캐피
흥원
불공정
찾아내
하드웨어
세로
예보
##게임
매물
기숙사
토트
기다렸
챙긴
남측
엘리베이터
콜롬
들어선
##aver
사직
소아
결산
우크라이나
##사태
끼치
실은
호환
비춰
필름
거실
새우
매진
비유
##테르
성별
명확히
가져오
앞장서
##느리
망치
성희
프랜차
간섭
2500
본회
원격
구청장
증오
밀집
TP
야스
핀란드
코미디
재임
토너먼트
Bl
일으킬
프랜차이즈
밀접
권익
기득
워커
보호법
뿌려
MP
빼돌
LC
부통령
호르몬
개량
일괄
사들
음주운전
오락
Sp
징수
쓰여
외계
삼각
페어
블로
속한
남미
당정
농어
하버
아름다움
FIFA
##그러
##청사
모듈
##sk
껍질
##셔츠
프랭
고작
암시
샘플
오피스텔
싸울
원금
MV
마찰
요약
산업은행
탈북자
퇴진
메이크업
정직
라니
봉쇄
계신
칠레
고구려
기절
순방
증폭
##오카
양당
이어진다
오프닝
회의실
라기
표절
올라온
성숙
##iss
대여
배분
부위원장
조롱
인과
부임
직선
소감
대중교통
경부
탁월
엘리트
##운서
국영
##게요
도민
귀찮
루수
이노
볼트
아나운서
준다고
CC
신한은행
발부
해커
KBO
다니엘
다름없
가라앉
명소
주시
##라비아
신념
타석
리콜
스캔들
한인
폐기물
##ON
싸이
교대
무섭
봐서
부산시
목격자
조현
시드니
경쟁자
함수
종업원
오름
원대
##테랑
컬렉션
이준
쏠리
대충
소행
자치구
##ond
##ure
프로세서
로스쿨
도리
라틴
착공
가져다
브래
떠오
찾아오
총력
1945
기념식
##두리
성경
귀여운
신자
##습기
생리
외국어
##에이
신나
환불
사모
북서
Ar
스트리
해져
##린다는
고맙
막내
##사이
선보인다
태양광
받아들일
사명
##att
역학
##월드
메타
혼인
길래
영원히
간신
행적
즐거움
박모
상표
아담
원산
순매도
리듬
포수
정몽
윌리엄스
쓰인다
로이터
가르쳐
찌르
배웠
해수욕장
말라
전단
부친
##라이더
집필
잔뜩
##서스
www
페리
도미
죽였
##규모
라이언
##oo
학업
극도
부합
미미
정년
연고
오찬
다닐
깃발
##틀러
입술
수련
나옵니다
절벽
트레이드
쿼터
버지
하나하나
골프장
탄탄
퇴출
엘리자
하여금
1981
등재
들어올
촉발
cl
102
신랑
이경
대국민
그레
기인
KA
##사리
세이브
단편
척추
먹거리
타수
##RA
가디언
김승
123
야채
신학
비틀
성희롱
지루
자존심
##oT
##사관
본토
정류장
휴양
막상
오로지
도마
##병원
요법
카지노
봉사자
지나친
부의
승점
군요
사도
압축
창업자
글씨
사죄
다닌
단정
##age
웬만
##스크림
리오
##pl
어우러
줄줄
종결
합니까
충당
##타운
##ys
포위
휩쓸
박상
노릇
수영장
국물
원본
조원
출하
플래시
전두환
간절
고등학생
김영삼
토스
번개
바디
차익
한숨
수중
##하이
##비치
적폐
다치
되살
손흥
격투
125
액세
발길
##고래
복사
토마토
##컨대
##엘라
기밀
세일
정계
발명
본관
##HD
소규모
SUV
아프간
염려
한우
판타지
손흥민
발판
산타
갖췄
착한
##티스
실물
던진
인천시
보라
상의
할리우드
재편
출제
강타
사설
잔류
군중
미성년
정점
##나와
경과
용병
##민주
이어서
키워드
탐색
변환
넉넉
테이프
시속
카스
단가
어마
왔으며
훈장
관련자
속속
봉투
나마
차림
인지라
인출
특권
##중국해
##뜨린
이시
회색
돌아올
갇혀
획기
사범
도난
연구자
LH
##시브
폭락
##워야
베테랑
꾸며
북동
##급식
무상급식
##스레
##버리
과학부
##팡이
줄어드
민영화
체코
##레일
라이더
급감
이뤄지는
##소연
생긴다
크레
연평균
발매되
##내리
유선
잡힌
디즈니
노원
만점
이순
##쟁이
선동
주름
치과
견디
어떨
##les
단절
SA
##per
블라디
만지
도장
스텔
진통
호조
안동
수거
격파
나폴
제작자
이뤘
IoT
ad
이라도
떠올랐
후반부
보류
이온
각별
불출
기업인
졌으며
##라이트
동남아
공산주의
기리
스턴
향했
##애나
무늬
리퍼
당뇨병
##TC
애널
염증
카메론
모의
iOS
동방
편견
DS
지뢰
중심지
몰라도
전일
드립
##바겐
##ary
구동
더위
간단히
##일드
아이스크림
##퍼니
어딘
##ott
##일으
불러일으
북극
걸맞
LI
긴밀
체질
샤워
##ial
서장
세균
휴전
하단
향기
내년도
내밀
오이
동상
루타
구제역
패러디
기세
직구
낙관
폭스바겐
##iel
치료제
스와
##FC
김연
추궁
욕망
던데
자이언
게이지
상고
하청
##BI
루비
도시락
특례
찾아볼
이세
중세
##경기
EX
부상자
이원
승차
연초
정관용
기념관
생략
한복
아님
외형
이화
JT
집합
##LS
##라노
성취
천정
과열
행운
코코
법학
##포드
다시피
참으로
두께
##르타
로맨
외화
활기
호기심
##ash
밝혀진
징후
공영
입점
등기
관건
효력
시내버스
##퍼드
일명
컴퍼니
여름철
##포터
##그마
양극
징역형
보선
아이콘
사교육
울트라
사법부
##렉스
퇴임
아이디
계통
하와이
환호
파울
실사
길거리
비명
환수
185
산악
당한다
잔디
관념
통영
벌레
차종
표창
참배
삼성그룹
경비원
교부
전교조
##부인
아세
유보
스피커
궁전
몰락
퇴장
근원
낮춰
증여
국제공항
유비
담합
원수
옥상
은행장
우체
나이지
나이지리아
시립
배트
아미
앞세워
가이
탐구
보궐
열람
평론가
박성
거북
기부금
naver
친한
공격수
동물원
배기
애인
##어내
주니어
총생
##십자
해운대
후쿠시마
일수록
마산
양호
##연대
비준
중국어
간신히
으리
중력
버섯
성완
짜증
ID
르노
삽입
대담
##하마
##ign
차분
용납
##크리트
특집
##ern
##답니다
원로
로빈
약탈
그대
영세
조문
본명
대접
다카
요르
유공
비로소
동전
대놓고
멈춰
이목
퀄리티
샐러드
금고
미수
카트
가습기
페널티
배운
가축
##무실
탈레
##가와
폭주
주교
방화
##빨리
가파
버거
불렸
##호텔
##멘터리
알라
상급
돌아보
파주
##ann
맡겨
##TO
뷰티
기피
피곤
현명
변함
성완종
##플러스
심심
박재
이뤄지고
##mer
총생산
어스
도피
걸림
지켰
기량
빅토리아
독려
잠재력
간혹
움직일
##ory
종사
필살
모호
##ens
##부로
바리
##테이너
그라운드
임차
다큐멘터리
뜨겁
헬리
##코인
러블
티셔츠
구조물
그분
##ound
ex
포상
##DA
행렬
바나
다중
공무
올라갔
자책점
전승
우익
시어
다쳤
일리
내려놓
방사선
##ace
##공화
반찬
실리콘
면모
MA
유신
통지
수성
마라톤
기울여
##퇴근
덩어리
자네
초상
##ett
추이
웨딩
파이터
유키
사이클
일곱
자수
##디움
호위
방사능
김형
##붙이
말기
밝힐
##로리
존재감
여행자
메디
무사히
스타크
기다려
캐리
우상
패드
남서
엣지
동점
##다드
갈색
이즈
적당히
탈레반
중위
비트코인
복권
산불
보인다고
헤르
훔쳐
증정
DC
설사
관제
하천
돌격
나비
##조사
적힌
중년
극장판
##oll
##ier
103
좀처럼
##기구
낯선
악영향
지원자
##파이어
대왕
##총액
시가총액
##끼리
세액
조장
WS
모자라
무고
힐링
상권
##ho
1973
녹화
저조
체납
드라이버
물결
카타르
##고속도로
버터
##대교
후계자
##LC
인성
페미
랜덤
감행
막히
환급
220
빈번
후유
주축
조조
고심
제작사
뮌헨
세션
오세
##수기
##법인
토트넘
AFP
용지
레시피
중상
마운드
어렸
##사키
특기
김장
정했
생활비
코인
스타디움
우대
##uk
멸종
귀신
해적
##ina
독립운동
느낀다
탐험
주무
공관
##ite
인가요
우산
실세
아부
무능
위임
빠져나가
개관
박용
on
기하
어째
교복
타이거
달라진
사카
115
오케스트라
커스
신차
##수엘라
비추
##12
으라고
추운
성장률
회복세
안티
달랐
브라우
빠져나
파이낸
안성
북구
외관
튀어나
대의원
세븐
카를
판문
##갑니다
맥도
방탄
불펜
심문
외교관
살림
명중
될까
일축
휴직
다가가
암흑
리처
리터
리베
보름
ap
온천
##수리
베네수엘라
##ES
원숭이
줄곧
기생
##병호
형평
렀다
기르
서한
긴장감
##루미
안겨
창단
에코
들여다보
배임
사살
자외선
저기
DM
##때로
108
찬반
구인
아테
공로
탈세
지지층
양해
중장
숨겨진
출퇴근
냉각
로선
진이
1978
표본
450
뚜껑
빠질
이대로
김현정
조업
텍스트
##창기
##벌이
간장
대인
JTBC
친정
갱신
냐며
달렸
##처분
침수
컨테이너
사생활
버스터
조속히
TH
실습
##able
긴축
휘말
##ung
테러리스트
영유
스페이스
겨울철
조수
바쁘
공휴
버지니아
오디션
제동
악명
시집
상선
변명
센스
부속
했으니
##주교
##ris
걸림돌
##리나
John
폭우
이진
플레
벗어난
강변
첨가
성동
나눴
경쟁사
sc
김선
240
실린
두꺼
연산
##젤레스
인자
항복
김희
신청서
전한
선별
오라
선보일
유관
잔해
쏟아져
미묘
더더
잔액
요르단
사위
##카와
교감
대위
스태
##수수
오마이
요한
마우스
차려
살피
임박
Cl
NY
재심
함선
넘긴
나간다
##개발
청춘
식구
액체
햇빛
법상
국외
바이올
se
각도
나토
후방
배추
샌더스
남매
폭파
임종
##출산
총알
스트리트
미분
1974
##여행
비아
멘토
차명
행방
명명
강자
도어
고액
우월
친분
사외
노부
파우
대교
어색
친일
발렌
나들
가져올
커서
막말
승계
##ove
정자
##19
출혈
##과이
횡단
콘크리트
나들목
re
서적
난사
키보드
정령
##BM
프로세스
공휴일
1972
달걀
작사
판문점
달래
내면
##동강
공구
앨런
내세워
강구
CG
##센스
습득
##sp
청정
방금
##부분
성남시
상하이
법관
살균제
너머
##rig
훗날
폭넓
##평균
무겁
트랜스
광주시
직위
톡톡
때때로
와이파이
중학생
던가
칼럼
메르켈
##타리
정차
뒤따
회사채
##데스크
코르
단과
챌린
배울
잡혔
##소시
1975
이용객
위헌
해피
##기사
십니까
공정거래
공정거래위
드러낸
전함
매사
우주선
스코어
세율
수동
##ile
곤충
사라져
##yle
바로잡
오너
불길
사옥
세입자
관내
넘어선
금전
구급차
##다이
##ox
염색
##방송
처하
안토
106
ab
꾸려
야심
##필드
챔피언십
레바
트윈
펼쳐지
가세
저서
사촌
무자
엉뚱
##즈키
조별
교직원
실려
니코
실상
막강
바그
##파크
에드워드
##BA
강점기
로우
사소
선착
아오
##anc
규격
비주류
로라
베타
분자
##ies
생전
주입
메카
반감
CS
찾아온
유상
쌓이
아쿠
대마
초창기
생명체
풍선
쳐다보
현수
후진
하사
학사
장애물
돌렸
AM
미끄러
합당
##프레
수다
1976
미라
장단
공연장
용이
벚꽃
파란색
호감
균열
여력
임진
소품
tit
쇠고기
약국
항만
이만
Mar
푸르
하버드
샤오미
딸기
막장
바뀔
경전
줄줄이
더더욱
해온
화웨이
늘릴
팽팽
##사업
##해야
##enn
변했
뉴스데스크
슈트
##콥터
브라이언
장전
태권
##ale
메이커
거인
인센
불타
지칭
인센티브
프로모
기저
죽일
가로막
함부로
보살
콜롬비아
공수
WSJ
산출
##쿠스
엘리자베스
마음대로
예컨대
시마
필터
##저리
벅스
차리
유우
##ish
자비
김주
조계
구독
온실
합창
레지
##공화국
오디오
애널리스트
상수
##베트
절단
##티지
남중국해
똑똑
플랫폼
경신
송도
광물
미성년자
송파구
산지
동맹국
외환은행
유서
끝났
You
맞붙
훌쩍
킬로
blog
했어요
주어지
주의보
미스트
호세
차이점
질주
인민공화국
피싱
우연
증액
내성
나미
전성기
합치
동국
지각
히스
##셉트
게끔
심야
부의장
헬리콥터
홈플러스
브리지
##현실
184
후반기
##케인
급하
침실
##어마
##VE
Pro
##ame
한눈
DB
##여서
조이
산맥
온몸
청취
담뱃
보리
이끈
해준다
호스
리처드
공존
##기지
시력
시설물
경연
동정
자부심
로렌
An
신동빈
저택
매운
이해관계
탄약
##HO
꼼수
구워
레일
핀테크
입문
잇따르
베일
웨일즈
자란
표했
시켜서
올라갈
갑옷
라마
투신
pro
수월
페인트
##하여
파편
사관
미주
그거
원자재
매직
왠지
소나무
접근성
스냅
악몽
친화
즈음
##ide
주어진
요코
재판관
서울특별
##페이
외식
재앙
가처분
속한다
연다
테일러
산업단지
##주군
##조선
다투
아머
안방
서대문
##난다
쿠폰
하차
속옷
AC
선조
##소년
고법
드려
행사장
le
치마
경상북도
##그리
저출산
김한길
브레
석부
거꾸
밸리
결과물
유진
공통점
SKT
시크
ml
최장
번영
필라
어업
무라
재수
모건
일보
종식
남구
서열
소설가
걸린다
레저
생체
머무르
개수
손꼽
민속
파이널
파인
화석
소동
석사
베드
벌일
강북
리본
##영장
내구
이완구
놓인
전문점
시뮬
공평
코끼리
유네
##92
풍성
거칠
극우
이쁘
당권
멀쩡
NLL
Un
지킬
VS
왕복
봐요
하계
홍대
어마어마
농축
발리
집니다
111
사우디아
트로피
나스
신작
전향
발상
전도
거취
치밀
원시
드린
숙제
##승부
접목
대령
과거사
보건소
##ix
러닝
강철
까진
가급
애리
숙련
범주
아사히
결말
한결
104
빨간색
협동조합
be
##방울
이현
##소시엄
컨소시엄
공짜
전셋
비단
깔려
루카
텃밭
자재
##팩트
노란색
분수
빈도
지름
평점
싸웠
당대
##리안
공대
가늠
##시스트
무방
맹세
노골
유네스코
아인
128
진리
왕위
폭포
롬니
파이프
제사
##클린
치른
호전
농어촌
분대
파르
셀프
kbs
살포
이야말로
성전
스위치
월간
##LED
##천시
오타
지체
고종
겹쳐
title
콘셉트
오키나와
##모로
##전력
고는
붙잡혔
넘쳐
입체
결선
사표
씨앗
##avid
입당
데이비스
화법
거꾸로
자궁
향수
정조
벗겨
##셀러
팬택
동반자
독성
올스타
국악
유공자
##태우
교훈
관해서
본체
브로커
##글라스
##징어
잠들
스티커
문체
우체국
##감치
워킹
프로모션
검열
예배
##RI
##찌감치
신병
미달
시연
##경제
노화
회고
##ink
접시
공청
원주민
활주
방지법
우루
핸드폰
붙인
우승자
폐업
감금
##페이스
거미
표출
문신
갈리
망가
대성
다녀왔
흔한
여행객
복도
양대
인플레이션
##런트
윤상
내무
아우디
토막
사우디아라비아
##학규
Com
추신
꼼꼼히
응하
망원
어딘가
불평
산다
##베리아
수납
오만
##나물
##ham
요정
줄였
패스트
강진
영국인
선점
약관
즉위
유병
인수위
남아프리카
나우
##마켓
175
퍼시
이승만
담임
목적지
스폰
반납
캄보
사업가
생물학
분화
잇달
그리스도
갈비
도망치
전투력
페루
하마
히틀러
북아
##old
백두
음식물
접대
##리그
교토
정정
키즈
1971
여행사
물리학
곡선
it
처녀
1977
재즈
##line
135
경희
남해
모텔
철폐
황교
올레
자질
돼지고기
늘렸
##추어
##oon
만족도
##무지
하이닉스
토르
##OD
틀림
나뉜
그늘
코카
서울특별시
느린
돌풍
수니
해금
끈다
가급적
끌어올리
본점
게시물
플라이
가져온
케빈
사르
##pt
카운트
컨디션
109
2030
막혀
##ax
동경
미들
수제
차체
휘두르
돌려주
마왕
예년
다지
급진
브로드
##에른
직결
두부
데려가
각기
쉬워
부검
여단
퍼센트
##곡동
든든
흘러나
헤지
승소
여러모로
장시간
달라졌
보호자
꾸미
소생
아랫
누리꾼
네오
에디
개개
칼로리
타락
예언
억압
구매자
##테이션
햇살
누락
분단
보상금
한파
경악
지워
프렌
어라
우린
평상
도지사
사리
통신망
주당
##릴라
##ai
##뉴얼
울음
낙태
캄보디아
애리조
##구치
##ms
107
수반
일삼
##퀘어
불거진
감탄
최상위
상관없
##are
신생아
아이언
##노이
서귀
##aul
##ere
183
신청자
사육
김문
롯데마트
##앤젤레스
로스앤젤레스
마스
##벌레
##15
한수
유언
알렉스
##화물
수산물
질량
제자리
맞물려
마그
1968
오클
발걸음
켈리
질러
##파리
1930
구슬
다저스
유격
원회
지켜야
필살기
누릴
할수록
휴게소
주춤
마사지
쇼크
밤새
##릿수
추신수
TPP
합격자
파일럿
망설
매립
발발
바이에른
스테이션
산재
##스틴
홍성
모른다는
주식회사
##Hz
에다가
교재
공론
아틀
이한
손학규
FT
후원금
다채
##날드
인플
me
1920
1969
전문의
분비
으리라
예멘
억지로
프로그래
번식
##필더
미드필더
##노총
파이낸셜
교차로
##me
반문
응급실
도요타
동거
영수
케네
동등
연사
##ook
##더슨
필자
간첩
잡스
무적
USB
##트릭
합계
절정
황교안
보잉
기일
바나나
##AC
디바
활주로
김준
축복
##킨다
미쓰
##ersion
미셸
No
크롬
남짓
다뤄
초안
되돌아
##다운
강좌
유흥
편한
##ric
캐시
나흘
쓰였
서정
전라남도
쌓인
##자원
가진다
큐브
교향
차가운
수질
테라
케냐
따돌
##orn
드럼
AK
##뜨려
초고
도매
불사
서귀포
STX
불상
이룰
나눌
ec
리프
##국수
이종걸
ES
유모
##동원
롯데월드
패시브
특전
퇴원
듭니다
수량
뒷면
##란트
치렀
동창
카즈
비방
대리인
##구장
해라
약품
##외과
##ence
케인
비만
후유증
경감
모조리
정우
사신
##내셔널
122
인터내셔널
경상남도
질타
스러웠
순차
오징어
박살
소상
입소
이재용
1963
부엌
LCD
##row
가져왔
크리스티
그렸
구타
몰렸
기미
##무게
넓히
몸무게
##11
무승부
마른
실형
제지
본다면
수용소
반기문
부결
마포구
반정부
사각지대
고양시
섹시
왼손
모로
거제
펀치
직책
con
루시
서포터
전셋값
아마추어
서해안
리메
거주자
상어
공표
칼라
230
오카
일찌감치
적절히
마진
앤드류
기류
##arl
사상자
이관
공용
##협회
총무
조지아
내세운
수평
지중
폭발물
제니
소진
##통일
유무
##ull
천주교
박찬
##하루
길드
냉정
붙였
루머
판교
최재
적십자
##ma
포크
익히
화가
열흘
수출입
BG
개표
요격
업주
무궁
충주
##균관
불출마
지질
시멘트
북방
현관
설득력
낙동강
##레일리아
옥수수
헌터
손잡
증자
마린
점거
투스
패밀리
소독
미지수
FM
변해
축사
at
서비스업
대입
슬롯
##리칸
보직
##베이스
결집
세단
##amp
문화유산
마이너
경기력
가마
성균관
블레이드
지난번
접전
커녕
1965
##결승
태극기
미혼
백지
마츠
볶음
케네디
RO
대동
날렸
fl
재질
침착
소명
##und
엄정
소관
윌슨
##gr
피지
스타크래프트
영등포
해상도
소닉
코디
사치
못지않
카테
##au
매뉴얼
모닝
테일
무어
##허가
바스
마인드
강등
부담금
수류
##어붙
하필
ECB
파스
패권
개신
우아
천하
흡입
카터
국책
그물
아냐
모방
인방
수배
##토록
NASA
동명
짐승
정글
라우
약혼
##저지
추행
##메이
알레르기
송환
왔다
정장
##수산부
핑계
박진
##돌이
법규
##들리
조직원
드레
엘프
비결
격추
나르
느냐고
만장
210
그릴
영화관
볼륨
AD
##yn
촉촉
어떨까
헬로
아이오
첨부
국도
은신
달러화
대두
##려고
달라질
달려가
동호
1800
카자
훔치
처우
뉴저지
걸어가
갑니다
남아공
앤디
##커녕
공청회
##케이
대책위
한국전력
활동가
##납니다
레바논
그로
동조
강호
괴롭힘
수니파
냉전
기관장
검사장
가설
카나
KO
카톡
남산
앞뒤
wh
하도급
고령화
라이온
블라디미르
반경
글래
회화
113
햇볕
정립
혼잡
슈퍼마켓
반입
소망
MVP
여정
##ius
민국
모였
내보내
##안군
방과
검찰청
공보
납세자
업로드
국수
맛보
##재단
낙하산
찾아와
에프
한잔
##공단
미시
다각
유한
상부
##슬라
끼워
운수
추대
ET
나루
터뜨리
##ree
배구
김관
이니
섬세
국방위원회
쓰러지
난리
옥스
##AA
182
강국
크리스탈
##츠키
캡처
판도
##de
레코드
##거렸
덩치
성모
국사
##ost
노컷
##게이
노컷뉴스
천정배
##생명
방울
유희
사체
오스트레일리아
황우
수류탄
사학
##VD
이케
복음
version
정형
탐방
1962
안주
의대
##권력
태워
어이
편집자
필사
도왔
##킨스
귀중
유머
사방
쿠르드
극한
예매
치사
시흥
가령
FBI
니아
김명
##마리
개미
##토스
슬픈
민자
미러
커진
합참
##펙트
단기간
함량
루프
단통
##ment
원유철
1300
##브라
에반
개원
로프
##ID
자유주의
매개
구이
118
스테이크
들러
##다나
경직
볼거리
아가씨
el
내세웠
우버
145
터진
목재
청주시
담겼
미팅
일간지
기수
단풍
이광
쿨타임
급히
공신
##에다
주총
힙합
떨어뜨리
해양수산부
그래프
스트라이크
시동
골절
코믹스
어느새
그리하여
행정관
소신
중원
품종
낭만
증서
의정
물자
내셔널
외과
##들여
리메이크
광경
공예
오지
신약
안타까운
노려
남학생
난방
이불
사당
필더
고아
##니지
기본법
##텐도
닌텐도
정시
col
영유권
##자드
손질
##ner
리즈
제대
파기
##위치
##매김
us
임산부
로열
리가
정답
진작
마포
우물
이점
조형
옮긴
임하
주범
묶여
전념
천황
자리매김
상반
##슬리
쓸모
부끄러
1940
GP
중증
좌익
팔렸
크리스토
땅볼
목동
##IN
전염병
유류
손바닥
챙겼
파행
he
슬라이
##EN
퇴치
토양
돌이
실감
타일
##IT
내려갔
프로필
밀러
바티
스틱
깊숙
학점
1948
go
여럿
un
##꿈치
하프
대법원장
##rist
UA
공범
##년층
##무장
##타로
선대위
괜히
피력
알선
은평
쾌적
특강
수염
본능
셰프
기술자
##으므로
뒤쪽
뜨거
##ork
섞인
증강
##날두
178
외래
탱커
호날두
##ade
가결
닌자
##int
수만
편향
승률
##지르
##갈이
악의
1967
장로
루마
도망가
루스
가져옴
요리사
대면
신지
에미
도끼
지성
귀엽
버드
익산
##보기
날카로운
폭격기
거슬러
정반
중남
도라
천국
116
데스크
제철
도래
야드
무르
유재
두뇌
밀착
워크숍
피했
며느리
주스
동요
우측
키웠
복당
원안
와일드
떡밥
스퀘어
사라진다
터졌
프로토
드루
1964
았었
순조
동문
##벅지
##18
개신교
하인
후자
진정한
750
성주
브라우저
##대기
비키
펼칠
ed
수락
##기야
경색
아메리칸
전동차
건가요
대지진
서울역
NPC
효능
##높이
돌고래
중량
청계
물러났
알렉산더
약사
피드
폭동
트리플
비비
165
식탁
엉망
1600
잔치
최고위
김영란
이의
쓰러져
출고가
속해
자막
벽돌
기념일
사나
특급
노키아
도울
현수막
한옥
직격
눈빛
##렉터
면밀히
거시
계류
니시
마운
한식
##14
다룰
송치
##상부
지극
증명서
호가
155
연어
아닙니까
##경원
일화
서리
로이
스톡
자위대
액티브
이긴
머물러
옥시
비평가
이통
수료
독감
요미
집중력
계수
##은색
사토
117
발자
오크
김유
레몬
돋보이
지청
이창
무분
##16
중소형
비관
##itt
이드
두려워하
전경련
포획
CPU
퍼시픽
사쿠라
##마르
텍스
드래프트
파급
관문
놀란
선로
다우
괴롭히
재킷
탈환
재보
##금속
시련
여타
시그
분실
기내
지휘자
호의
저명
농부
발족
앤젤
모노
심리학
다자
속출
이뤄져야
취업자
수감자
세탁기
##폴리오
포트폴리오
속초
바늘
##이나
올리브
피치
올라와
레이드
##닐라
살아나
빌드
인신
##살이
치료법
컨퍼런스
각본
늦추
##말라
사귀
호재
거쳤
에티
멋지
179
쓰인
개개인
나사
##관리본부
카니
정선
극단주의
소라
인내
진행자
조영
MD
안무
by
경남기업
늘어난다
묻혀
무실
흔하
##ake
절도
막바지
중고차
클러
1900
찬스
##sc
화소
David
EP
리우
불거지
고난
연임
아비
사채
통역
##천구
상류
마블
한라
기병
털어놓
용감
##스케
세르비아
##17
마셨
합산
일조
해저
귀가
꺼리
엑스포
티아
돌려받
얼어붙
굴욕
em
오리온
##벤션
로버
벌어질
저해
##모리
도스
예민
잊혀
##겹살
치를
전과
이산화
어택
Pl
경품
pl
##바바
용산구
재래
시뮬레이션
삼겹살
미카
도루
대란
##체어
질병관리본부
예비군
우르
프린터
스톰
양반
휴스턴
신분증
불허
식수
괴로
어리석
분신
##저트
국한
다녀온
엄지
은근히
항공편
스태프
허벅지
크다
아세안
위배
##클리
당근
후속작
분홍
교단
마실
요크
저금리
##13
거센
키울
참고인
크라운
##oto
에이전
##유키
IBM
휠체어
컨벤션
형법
거쳐야
꼽혔
제왕
충동
방송인
성북
스튜어트
차입
추상
연석
프랑크
십자가
##ther
##어야
He
울릉
이나마
##우마
농약
윤석
네임
자랐
챌린지
핑장
소파
무분별
Gr
올드
##르도
세리
원산지
화두
이정현
회의장
황사
응모
##모어
스트리밍
종양
시합
##서울
신속히
의구
실책
태아
까다로운
탈모
원자로
##거스
리바
기업가
경질
지주회사
##워했
Sc
손잡이
욕실
셀카
어드
자릿수
현충
가져야
유방암
끌어내
스콧
호칭
찬사
적법
커리어
유능
적잖
잡아먹
강전
조사단
빼놓
김부
무기고
수원시
내다보
평타
애틀
브뤼
127
순회
김윤
쫓아
의료비
##land
강당
트레이너
##무니
연행
OP
##거지
국민당
sk
시아파
의구심
각계
포터
현행법
간직
##슈타인
##own
헤비
가했
상거래
단골
##도어
##ose
CF
신재
평년
스모
##블로
##AS
김창
대타협
속이
올라간
송전
경의
문화재청
자립
제천
내줬
뇌졸
320
퍼스트
지친
##슬링
받아들였
딱딱
인제
오른다
도로공사
녹취
터뜨렸
안토니
##ael
국유
환원
통째
##세데스
메르세데스
최우수
정가
내비쳤
백작
싫어
##겨운
##ana
시즈
연립
광대
마오
##의회
회의소
수십억
연례
굴러
소나
꼬마
통틀
##OL
깨지
종북
표방
카레
인척
조처
우라늄
넥서스
고비
노린
작정
미분양
국과
맥도날드
둥지
찾아왔
중앙선
우파
일컫
구축함
##부진
##추세
코스타
으셨
호박
청렴
고구마
대관
투여
마도
물음
샌드위치
##act
NYT
집어넣
##걸리
##캐슬
소수자
변론
병장
이별
화질
대문
달할
메이드
##정식
남경
트라이
여객선
뉴캐슬
마쓰
##엑스
독일군
선거관리
선거관리위원회
절제
154
##우트
오산
DVD
마셔
##ane
바비
케이트
##망이
대구시
가명
수표
Ph
당직자
대림
펼쳐진다
손수
돌아섰
팬덤
후면
섞여
MM
뱅킹
원치
다발
MOU
124
알루미
곤두
그랜
대용
##듭니다
다듬
나뉜다
##제리
피격
박영선
And
세라
게리
##악산
시에
158
기꺼
잔혹
뒤덮
무주
OLED
전해진다
신경전
불화
코노
세팅
이세돌
실험실
타구
칼날
명사
막걸리
트러
쪼개
한발
##lex
http
펌프
대남
구명
##co
목걸이
찔러
척결
치러진
더미
1961
미인
세법
##거슨
수목
nh
히데
##언스
제프
역동
참패
직속
시안
##애미
남북한
바우
납입
동사
국공
마이애미
생겨나
메릴
여덟
한국사
이대호
공명
경정
공과
즐겼
멍청
문법
배급
##나드
외야
벌금형
알림
흡사
##순환
머릿
애틀랜
##ime
방산
웃돌
세관
교양
반론
대명
매사추세
관세청
##ank
듀오
퍼거슨
플랜트
뇌졸중
박해
불복
##orld
퇴직금
##연구원
게임즈
멜로
넘어갔
소대
##pe
성직자
무너졌
전망대
##주의자
이건희
백업
매사추세츠
는지라
자백
대승
##라기
다시금
속여
다친
##고루
카디
미숙
유난
방대
애도
PM
트릭
프라임
동급
177
동아
말투
부평
부두
사지
여고생
무작위
캡틴
소말
방콕
바치
아홉
줄지
캐피탈
데이터베이스
##35
126
바꿔야
밀수
열광
외쳤
##희정
Re
기꺼이
##승환
털어
##다임
인위
패러다임
의의
##ald
뒤지
경희대
강대
모음
손길
양형
접한
공허
장부
144
당론
당첨자
##버려
영등포구
벗어날
운전사
지중해
스윙
놀이터
음력
##클럽
들으면
관철
보금
휴업
보금자리
떠들
예결
서원
##우치
##아먹
어미
1966
##고사
성지
##모직
수석대표
세자
안면
BB
펜션
제일모직
초선
알루미늄
타깃
과격
이계
액세서리
천체
이데
알리바바
장담
프란치
대내
##라미
컴백
강성
소변
어필
해냈
체크카드
다케
##나들
탈취
지디
면역력
레인저
장터
곡물
회차
보안관
캐논
추기
루마니아
스테이
타마
이양
GT
좁혀
기침
국지
쓰러진
기준치
137
##누스
##yl
그래야
원만
수아
예시
육지
허술
162
악성
계약직
마르코
드로
체인지
미처
##시설
사수
미스터리
반값
택지
칭호
교보
준결승
이터
키트
박준
강풍
급기야
ISA
보행자
##oul
연중
죄다
허나
고소득
##orm
열망
몹시
엔트리
패소
구했
박쥐
주립
##퇴직
모터쇼
sv
규범
농단
아무튼
플래그
들여다
산행
된장
달라진다
270
항암
재가
개막식
카다
파열
일병
더라면
Ad
출격
들이받
무인기
급속히
때렸
모스
모모
##십시오
신격
여겨진다
##네마
넓혀
포화
취임식
##성이
포르노
##eth
유대인
비주얼
UE
밀가루
이장
나리
인사말
자이언츠
애호
고안
교외
풍자
의존도
본작
##벨트
비웃
그랑
심플
하수인
##ft
삭스
어버
걸어서
모나
김원
157
유정
##러그
##ational
교리
정제
원룸
못한다는
엘리엇
지켜봐야
차등
골고루
더운
감염자
과천
##국적
장래
방사성
샌디
Ex
분주
남극
풍속
미생
문헌
한수진
##OM
더군다나
유쾌
##부모
Br
##기름
인삼
##자키
무더기
도보
엇갈리
330
##적으로
포탑
단의
악역
부호
충청남도
신주
진격
외무성
회식
들어섰
아드
퍼레이드
아레나
레이싱
몰린
스폰서
항공모
펼친
Wh
반장
의총
조경
152
얻어
질투
진한
건축가
야구장
제라
릴리
적금
##카이도
##암동
성급
##아티아
크로아티아
##도리
자행
니트
싸워
행하
슬프
콜라보
프랭크
사사
천문학
구치
외교통
어긋나
빌미
##ble
##경찰
일감
경합
중추
##모습
무너져
편법
그제
제인
##히로
간사인
프란치스코
##무늬
WW
동성애자
출루
소드
디테일
몰두
서산
156
프라이머리
요동
번갈
티베트
사용량
##ins
강서구
중남미
분향
정세균
돌봄
지오
##원지
미모
찰리
몸통
시애
버려진
그친
공언
콘솔
##훈련
건설업
절박
온실가스
크레인
280
넘버
불려
스팀
요령
악당
연석회의
독창
수정안
평상시
원동
얼룩
자취
선택지
이호
수요자
가열
행해
이어받
##올로
##TN
체내
식용
히어로즈
키리
대본
병합
공모전
동인
외계인
관영
카테고리
재외
파스타
수고
파출
미약
rd
찬양
디저트
거주지
쏟아졌
as
신형
아테네
한국노총
기관지
문항
연주자
젤리
띄우
견고
섀도
광양
저성장
상황실
나뭇
##델피아
필라델피아
##cc
시애틀
적성
스탈
여중
졸업식
전시관
작물
##oe
소말리아
수첩
호화
이순신
브뤼셀
낙선
불쌍
죄책
##운용
클리닉
반죽
##브스
로리
둘레
리차
교섭단체
눈높이
일회
죄수
mbc
종가
해수부
개막전
인터페이스
각광
셔틀
KD
판매점
고로
##줌마
부흥
거둬
먹여
손톱
정반대
어버이
유가증권
존엄
tr
상회
르네
혜성
올린다
기강
시공사
생명력
추기경
##모스
여겼
아시아나
태백
감히
환산
##같이
최저치
블랙박스
늘어
써먹
##시티
정액
##IM
키운
불법행위
군사력
문양
##IB
아시아나항공
UAE
가닥
앨리스
호스트
가치관
아줌마
소시
오오
심부
https
페인
DLC
SE
충고
카리
갇힌
커맨
총체
어둡
콜린
신문사
매몰
천지
여가
공채
분기점
울타리
취직
132
추리
ABC
CES
Te
겁니까
움직여
아즈
종말
사탕
모던
지폐
포용
밀어내
장외
센트럴
득표율
오스만
##키스
168
서두르
지라
##WC
PK
신전
압류
PP
느려
유수
난항
후드
##ara
관리법
자처
탄산
국비
NS
이철
구실
서강
무너진
동남아시아
터보
사절
황폐
어뢰
##뜨릴
리베이트
##느님
##폭력
구르
##프스
불로
세워진
너스
159
튀김
평면
좌측
##통화
월평균
260
비참
대니
첩보
퀄컴
전라북도
터무니
구한
초코
##거진
왕비
공매도
삼촌
138
##축구
떠오른
중성
말미
##해튼
오른손
##ii
악순환
사라질
여긴
방수
소고기
이색
내기
가출
어머
탄원
정거
##미야
이룬다
##박이
##행사
그쪽
인권위
스커
다이빙
알고리
UHD
건넨
송이
소비세
차남
숙청
강했
3500
무성
삼국지
la
요괴
하느님
비시
융자
미녀
바오
초상화
수컷
맨해튼
##수아
무실점
호출
아이러
올라간다
력사
##동자
엔젤
황우여
출소
제갈
고질
버블
자니
조연
절하
혼돈
에디션
스가
들렸
불빛
편곡
##폭풍
##스트로
164
##이팅
베스트셀러
러시
수사대
개업
양사
아리랑
창원시
끓여
수억
망원경
위쪽
변한
1100
그칠
경험치
유난히
특공
##트니
검장
간다는
##이어
최대치
박기
Go
주임
한시
pr
강정호
지녔
##냅니다
털어놨
외무부
수뇌
##분투
##정동
어지간
항공모함
거물
뭔지
은밀
읍니다
지리산
복선
식단
##무소
SF
##cho
1949
워너
재검
친근
라가
허무
암컷
##보험
무수
실드
보낸다
1946
비누
##ca
쿠션
맞벌이
능가
바짝
기사단
루나
브룩
자폭
분사
건국대
정예
레어
Le
퍼즐
이은
136
시조
연락처
자의
시킨다는
음향
처했
챕터
리프트
유기농
##선거
야후
웨인
허물
열대
간간
정모
잠자리
정동영
청중
##ero
정거장
나경원
반대편
장중
예뻐
가솔
블로거
형량
양질
모하
스완
거스
성관
벽화
잠금
프론
제네바
연정
무색
##워즈
원점
히로시마
노라
##줄기
안락
김인
뮤지션
이쁜
위촉
가위
##eng
원서
121
스케줄
착취
영지
##버거
오메
마음껏
피츠
농수
보태
미르
문턱
어째서
내려졌
여도
마누
시시
후세
온난
수순
판례
법무법인
심포
웍스
최태
WHO
요트
알고리즘
트래픽
불어넣
노래방
돌려보
독수리
포탄
무제한
평판
점진
리틀
시국
떠넘
선글라스
승려
리카
##통화기금
연차
##부패
카자흐
부정부패
토벌
코팅
with
국제통화기금
저그
분석가
김두
후문
앞섰
분식
어기
활짝
EBS
맞췄
상설
두들
이빨
러스
dis
##oth
나열
로맨스
##ical
페이퍼
650
김구
니까요
만연
특조
카리스
자산운용
##rom
전병
음악가
거니
교구
소소
개구리
김도
누출
##uck
구절
해발
애틀랜타
결핵
글러
##투리
슬라
노동력
##AN
저렇게
헬멧
격퇴
땅콩
무안
##여대
바닷가
en
압둘
등극
건넸
급한
틀리
##랑드
##rid
테리
팽창
##틀리
129
됐었
스릴
배트맨
퀴즈
정재
133
발전기
##ames
##볶이
잠복
1400
벌인다
억류
카오스
킬러
여행지
데드
배열
##징계
인맥
활발히
떠돌
이글
효성
폭설
평안
도적
관례
근거리
파병
트루
##마을
버디
장애인
운운
1953
물려받
바뀐다
크레이
체온
다진
대출금
적군
화물차
효소
##속기
닛산
##ction
Be
김제
태생
성기
업무상
스러움
복직
박병호
리차드
##금융
간소
실업자
감청
##니카
부추기
프랑스어
전가
550
##올라
라오스
변이
약식
으실
필연
fc
침범
호프
##일치
##ous
출원
파탄
이슬람교
지극히
띈다
##아나
접견
내려진
고군
나트
서남
친선
맞대결
링컨
스마
해병
심혈
##현동
진흙
##ance
능동
쏘나타
가나
냄비
환기
죄책감
##테리아
양주
토종
솜씨
고독
조희
습지
니깐
리츠
벌어들
불씨
쇼트
종자
모른다고
KE
##ome
가든
가장자리
본연
커져
옮겨졌
정부서울
정부서울청사
나주
폭언
알몸
온통
보수당
블랙홀
만난다
##무진
한상
까마
좁히
로움
반동
기록물
권영
VIP
유타
매듭
생각나
보람
Rob
공성
고분
즉석
기력
위태
안전사고
돌파구
미키
트랩
우루과이
수천만
##기부
트라우마
스카우트
가미
단연
변국
148
박지성
커머스
LPG
SL
불발
토모
캐머
신촌
김세
궁금증
반하
워크아웃
변질
##무사
머스
172
루크
취득세
내린다
다국적
NG
당직
잣대
토론토
이화여대
##iam
감염병
정연
선비
려다가
시당
##eter
하야
사회단체
지면
팔려
브랜
입힌
절충
순례
미쳐
염소
##IST
166
타르
끌어들이
추월
##바르
청량
주심
##큐어
상술
더비
인해서
176
항생
기관총
가르침
방공
153
느껴진다
졸라
얼른
일격
진급
다량
래퍼
박경
사슴
판다
로저스
상응
김혜
왕립
들였
란스
##enter
유격수
가솔린
진료비
단결
배고
##브로
##ini
증기
제네시스
킬로미터
시외
코엑스
##양함
영수증
레스터
코프
은데요
구자
관대
교란
가상현실
매춘
##위대
몰입
##네임
그려진
알렉산드
여진
뜯어
우즈베
신영
##tern
번거
최전
자위권
월등
146
style
빼내
제스
1944
난입
전전
저수
국익
후폭풍
투표소
부츠
가면라이더
여겨졌
라운
견뎌
출두
식이
미일
수하
도당
맞출
인피
클라크
친숙
만두
##에스
양평
##구석
저리
블루투스
##ans
도봉
정준
남동생
병실
웨이브
김현수
FO
##ron
셔도
카시
##데시
설령
트레이닝
지미
혼다
##지마
담장
##폭탄
티스
출입구
이혜
##플러
박태
수박
요렇게
일렉
개각
정오
펜스
홀리
진해
트롤
bluepic
redpic
떡볶이
주된
브렌
성산
쉼터
법사
기다려야
트레일러
적시타
외로
진열
맞섰
집무실
##ve
구직
구비
도우미
감리
프레이
지기
로워
돌아간
칭하
현존
주어진다
인스
139
뉴타운
1955
물갈이
벨라
스텝
반포
재회
로저
해독
퍼부
홍문
모빌
윤성
##살렘
흉내
##루살렘
증원
아토
기승
로얄
각인
당헌
평행
허리케인
자작
초음
모아서
모발
개연
돼요
비평
134
입주자
RPG
박인
롤러
핸들
물리치
난무
조폭
쳐서
숭배
리온
견딜
초연
친해
캐머런
돋보
주공
##ave
활동비
365
신진
UEFA
헌정
완성도
옵티
표류
교내
무술
야쿠
색다른
수퍼
넘어갈
누드
충실히
평창동
정현
로그인
이희
선호도
##니티
김학
번복
##시대
준우
##MP
느껴졌
##타나
베이커
이타
요미우리
아사드
NE
명백히
찍힌
부응
위함
봉지
동선
줄어든다
OST
울프
##돼지
흘렸
이국
##은희
##테스
언행
테스
잠식
##민주당
과언
판명
볼까
햄버거
따랐
포탈
캐스트
만장일치
어시스트
루니
육수
최진
거둘
경영학
씨티
드러난다
양손
장신
##ower
운전기사
단추
##지오
슬로건
파출소
조그
##레즈
가뜩
각서
보유자
##ene
윤곽
밥상
유이
지날
어린아이
슬리
퇴사
BO
##ivers
유골
농지
앞바다
떠난다
십시
교량
어민
송영
##마다
이분
생산자
서북
유라
체조
세울
편찬
gr
##우주
페르난
무궁화
몸값
공석
할까요
앞쪽
자카
마취
최정
##사전
하룻
진다는
항로
##가미
NHK
거지
##글라
내몰
만회
전멸
감소세
불분
안드레
##불리
접점
겸손
142
##세지
낮췄
되돌려
니혼
여관
이재명
가뜩이나
##소통
성과급
극동
수유
의사소통
원망
어용
경성
크라이
가두
리코
틀린
##olor
국보
제소
레이디
해야지
사무국
살아온
동월
이뤄져
설립자
캡슐
##카이
여주인
은가
나폴레
원한
슬퍼
글래스
드려요
1958
167
메이지
멘탈
원합니다
##전지
군청
묵묵
소란
혁신안
산모
##보라
불분명
다녀오
##태평양
집사
##다오
아라비아
재연
황태
##튿날
머레이
두꺼운
산사태
논술
기갑
스핀
연달
샴푸
박세
여태
독재자
수뇌부
YTN
몰아주
이튿날
가리킨다
카리스마
화답
cc
공자
생사
바이올린
불문
중거리
사시
벙커
##te
비빔
자생
달아나
대표자
마피아
비무장
바닷물
세이버
나폴레옹
GPS
지팡이
한성
의거
##랑카
무더위
패트릭
총독
루피
##일스
서초동
히메
무거
감량
수임
개교
멜로디
화기
마키
발사체
Con
검문
송구
맞춰서
163
프로그래밍
각료
차관보
bbc
출입문
수개
채무자
단종
Se
친밀
신데
1954
김문수
레딧
기간제
정해져
위기감
아이러니
정사
촉각
관리비
구부
회부
##티노
뜬금
##oug
과반수
끌려가
인파
##수원
처참
1956
부디
기뻐하
장성택
낙인
주지
청각
나기
치명타
하룻밤
평화통일
디트로
무모
디트로이트
##저것
강인
이것저것
비서실
튜브
항쟁
항생제
길러
스텔스
증설
엿볼
결렬
앤더슨
앞당겨
결실
선풍
타로
눈부
보습
원년
우량
Me
소량
군복
라이너
택했
입각
출입국
수교
하우
모친
bp
수익금
143
데모
샤를
김밥
복부
마마
##찰청
문득
당혹
점쳐
대검찰청
책임감
심상정
라파
머릿속
##ase
방조
무형
203
삼성증권
##세우
변조
줄리
##각각
샤프
교육비
참치
은혜
옥션
크리티
##ony
##래스카
구직자
새삼
장모
강기
무심
휘둘
##탄불
전광
달해
럭셔
럭셔리
수녀
노바
울려
기업체
총파
이룩
항모
천명
강남역
정몽준
CIA
야수
홍익
my
면치
안젤
독립성
어이없
시종
관습
폐렴
##쿠니
1959
들어와서
합체
한양대
아케
또래
미츠
##투자
승패
실크
제때
함락
아찔
무소
영도
제명
시간대
redban
직종
민족주의
blueban
학생회
수십만
총파업
방중
행정자치
행정자치부
늦춰
##air
색소
신뢰도
정쟁
기저귀
정경
더러운
유리창
##연맹
##미아
매기
빨래
었었
##가치
##AP
신정
벌리
행각
흩어져
내국
BS
이리저리
말려
##시효
올라섰
스케일
디렉터
항성
문예
특별시
불가리아
par
그쳐
147
테슬라
펀딩
선착순
소홀히
선교사
##버린
김미
##cl
심층
속보
거래법
브릿
빌린
게이머
신하
포대
통신비
폴리스
격화
흘러가
양수
톰슨
드롭
테크노
##루엔
색감
하소연
실렸
고군분투
합병증
##삼성
배낭
##세기
산화
PB
칼슘
흘려
공권력
##we
왓슨
낙마
##악단
##aj
149
역내
이면
근간
잠자
라벨
피닉스
##크로
의결권
본드
전시장
그러다가
양재
풍기
플루
엔드
##러지
부끄럽
캐서
경제성장
##스틱
##료품
정운
인준
넘어지
신곡
심신
반란군
등교
만능
김성태
골목길
판결문
##ichael
커맨드
추징금
세심
네스
주택가
몰카
기획사
##48
공황
##선스
남경필
치중
##레이트
넘길
휘하
어젯
르노삼성
검역
어젯밤
XX
아슬
계획서
스무
해밀
민병대
중첩
내버려
여느
보이콧
반갑
##양군
##ize
아래쪽
top
부양책
##add
잡아내
놓쳤
아웃도어
대내외
청나라
##치아
인문학
##by
라이선스
정종
재량
발열
석상
선상
단다
생식
고갈
버텨
##안전
그러다
소방대
2022
사다리
##블리
합친
리안
로지
후쿠오카
신변
옮길
자바
저술
고창
마카
수식
##소타
꼭대기
##트랙
걸러
##차기
지카
비밀리
실로
자연스레
##레이크
필두
콘스탄
폐허
볼리
인분
춘추
성도
로또
제리
##ica
바티칸
포식
##에미
일어난다
램프
스탠리
장자
rub
로보
사슬
svg
존속
쓸데
간염
##마드
치료비
비위
연타
고스트
크리스토퍼
빌보드
조개
##호영
##불명
민병
색채
표지판
독주
##메리카
##임자
피카
알아내
손녀
특색
지회
##카쿠
페르시아
블레
스파이더
똑바로
민관
알카
화백
애기
모레
성금
지식인
블리자드
아모
자구
변동성
미네소타
벽면
mp
##날레
저마다
카탈
배드
민법
진위
잠겨
##다듬
첨예
아무개
유착
하루하루
조르
SR
##olog
##올로기
틈새
직격탄
이데올로기
225
##버섯
선거인
세례
하산
고모
##깨비
##진구
성원
그려져
환전
견지
투약
##서양
느슨
마카오
나와야
사악
패전
이오
캐스터
##유국
전반기
##블랜드
클리블랜드
호우
스노우
방미
별장
다가왔
접할
멈췄
십시요
구치소
커진다
포진
##나카
TK
미아
조우
CM
##여겨
현저히
당진
비키니
호투
고든
메우
두드리
##드름
지방세
모여서
전주시
##EM
##상정
일쑤
성대
막아내
양말
##메드
분출
최영
였음
010
후미
서식지
탐정
회사원
악취
중전
아지
간절히
바이어
남원
수수께
잠입
other
모델링
수수께끼
도용
##위성
배워
기만
이남
입성
복면
승마
스크롤
서청
구토
알맞
370
Lv
워드
돌아서
어부
횡포
장례식장
태운
만취
눈여겨
굳건
광선
자루
급변
질식
흡연자
형국
일생
팔린
서사
타이완
분향소
미끼
경복
평의회
전속
제이슨
나인
##uss
렉스
1947
이승엽
주상
까다롭
멸치
덧붙여
산학
ip
동반성
밀레
여대생
장편
겨루
확성기
단거리
부끄러운
캐치
##부족
수도원
아랑
간과
중앙지
##alk
라라
마가
##막이
진공
전폭
수자원
살릴
형벌
보답
항일
BGM
맛나
연수원
예루살렘
개그맨
방글라
##상가
방글라데시
중화민국
강민
꾀하
##bi
기고
물의
불능
경량
동탄
미즈
턱없이
줄기세포
상상력
일족
보안법
유고
코칭
필기
펼쳐진
사의
이강
노회
숙명
윤창
막힌
##igh
제너
선인
학자금
단합
풍요
카다피
##서니
고기압
나아갈
ML
로이드
엔지니어링
세분
발각
참여연대
청년층
##쿠르
김연아
새겨진
##레스테
초미
재검토
에이즈
##에고
사령탑
택하
완만
내려와
1941
눈썹
카미
초당
##정지
폐암
원더
김홍
화랑
##영수
도자기
딜링
완결
대응책
위스
군함
##yst
##하르트
보호막
군민
온전히
##bo
##oun
하비
사주
##제국
동종
선제골
LP
파헤
당도
인계
수은
여간
호크
건드리
다는데
뾰족
Car
NBA
서머
납니다
하부
발광
수서
가할
전법
운영비
관직
철새
북유럽
##김없이
금수
한몫
DMZ
상여금
##드려
시군
팔꿈치
##폴트
##탱크
강탈
아쿠아
예견
콜레스테
수개월
벗어났
만세
파멸
콜레스테롤
컷오프
##자재
강수량
하하
##oss
##바꿈
세비
미비
승선
공교
380
커리
해외여행
팔찌
##ield
우즈베키스탄
선회
듬뿍
입안
는데도
세간
브루스
아깝
크리티컬
카우
카네
하이드
##로지
자급
노태우
오승환
망하
##체인
레버
옵티머스
곧장
이한구
난감
국빈
##쿠버
참모총장
플리
쓰일
쿠로
김양
센카쿠
im
##45
이스탄불
웅진
IPTV
틀림없
안착
번호판
네타
재가동
올랑드
1952
연못
쳐들
살펴볼
명함
밀라노
아랍에미
갑작스런
아랍에미리트
오세훈
신격호
끝냈
포천
##ru
군부대
LS
로브
변인
결전
부딪히
무스
양면
빈소
##루엔자
영재
가파른
##질러
유영
대파
최하
광저우
리바운드
##AM
##웨이트
몸싸움
주점
리타
이회
인플루엔자
NHN
##사실
건너가
악어
서청원
인민군
박대
쿠웨이트
목표치
출품
보루
이어폰
충청북도
De
그랑프리
난동
성서
단면
라든가
항공우주
스탈린
유병언
반등
본국
슬램
갑작스럽
발암
강물
##변이
못해서
신동주
##리히
맡겼
1957
이재오
비엔
유익
남양주
돌연변이
프록
지켜본
백혈
잔여
캘리포니아주
주저앉
수호자
함경
혈통
라즈
감세
봉기
스톱
클레이
화분
아시
무공
찬물
검색어
##텍스
1700
끝난다
rob
금성
열병
쇠퇴
이체
정석
급성장
SO
##작물
캐서린
상성
디오
연습생
미생물
지주사
고충
엄격히
밀어붙이
이토
자가
화사
케이블카
##pr
경인
둔다
쌓았
마세요
##교사
IN
연평도
##버른
페이즈
DD
당면
흑백
바겐
전보
넷째
음악회
마르크스
사본
##ole
성가
힘쓰
음료수
이해찬
철학자
예리
포병
집결
##특위
SH
WP
AIIB
후원자
긴밀히
임대차
브래드
판시
설레
무명
넓이
아무렇
정진석
유린
혼선
생겨났
대졸
라던
클랜
정대
빅뱅
이소
연전
종신
시라
JP
##부상
소유주
다방
완수
##erg
접경
구급대
자본금
보르
연구실
##보증
##바나
##atch
유망주
ELS
튀니지
매달려
##저가
신시
나아지
박민
용암
성벽
센티
어학
가자
목장
안도
기념품
파파
어워드
거머
작별
아우르
멜버른
물러난
열렬
동메달
소박
황후
##order
싸운
당규
보령
정중
##게이션
사용료
내비게이션
페더
간병
##ream
꼬박
카자흐스탄
인허가
끼칠
괴한
##렐라
##app
달아난
조력
거창
계약자
ETF
홈경기
단수
혈세
몰려들
낮춘
개년
숨져
역부족
허점
몸집
국제기구
##장치
홋카이도
sm
박동
연탄
깨끗이
거침
한껏
어서다
레고
권하
떠안
해골
회귀
주선
중저가
사업주
누스
이루어진다
관광공사
1942
학술지
신다면
구애
##문화재
베스
하남
복판
##세스
하이라이트
요가
허니
베어
혈당
투척
살상
rad
만든다
##원식
다닌다
1919
back
해왔
##org
발현
원한다면
bar
car
new
돌아와서
안치
##berg
쪽지
희미
지로
중징계
테레
모유
##협상
주포
포부
정청
아닌가요
에도
sn
열도
분경
컴퓨팅
엿보
직영
파츠
김우
YS
지하수
850
끼친
대의
수족
##쓰기
일출
4500
보라색
당무
173
##돌프
##맞이
##ube
방문자
해밀턴
##서야
달아났
직권상정
재빨리
기다릴
전자책
##크림
게르
최성
속내
스페인어
제독
##US
관절염
식욕
218
다다
충무
##ild
레즈
##파니
장려금
보디
위크
스케치
총통
PV
오메가
투옥
로펌
독일어
급급
알래스카
커브
로드맵
탈바꿈
움직였
스크랩
클립
따라잡
통폐
##인다는
결핍
북서쪽
미용실
타케
##ater
소각
동유럽
마니아
그토록
끊기
심경
헤어지
나트륨
라이스
몰아넣
서강대
의아
쿠퍼
뒤흔
안중
##플렉스
루이지
국교
무의
준우승
슬림
##에트
all
오스카
현대그룹
안희정
싫어하
퍼졌
##전기
##orea
IR
모처럼
역세
무도
번쩍
내려왔
BC
증식
가까스로
알카에다
설계사
서약
내무부
염원
강령
돌릴
음란물
나날
장원
왕관
##찌개
잇단
전인
기질
부드러
간지
스며
식료품
임차인
패했
달려들
##모니
유역
호황
게이츠
돌발
##바키아
접어
결별
노조원
파트너십
두드러지
##ford
냐면
치부
통찰
##ani
국제법
달력
박테리아
삼가
1951
급행
가져갔
참관
적격
합법화
공전
사칭
야만
둥근
##혀서
불거졌
남발
끊임없
터질
##라마
맛볼
오름세
당파
조인
은닉
##렁이
##ult
##que
##화나
가져와
저감
주거지
갱단
누이
코우
table
문학상
내려온
브릿지
구마
바흐
##ba
가락
운임
돌아다
##리스타
미술품
1939
청담
철원
##프셔
식감
##부인과
산부인과
파나마
##ike
줄인
##구멍
수역
광기
장이
북적
따를
다가온
백두산
밑돌
광학
내사
웅장
치닫
울산시
타이거즈
은메달
총사
마차
동아리
##ple
조교
깨어나
169
##EX
블록체인
통폐합
갑상
허구
버틸
##문트
탄창
골드만
엑스트라
부가가치
야산
회기
##마루
##크리
나타낸
하의
레이블
유교
까마귀
바그다드
카를로스
스케이팅
미트
이루어질
트윈스
##레스트
사업체
##문고
##무시
고령자
직급
시베리아
테두리
된다며
정주
서대문구
독보
쟁이
mill
상쇄
매수세
국공립
플라자
고공
노점
적색
베가
Ed
더럽
구조대
플라워
열세
구강
고온
담뱃값
휴지
반가
서재
통틀어
서클
알제리
무지개
Tr
애호가
리사
잉여
##미안
##드래
부업
도쿠
재위
대우건설
##업소
묘역
성찰
걸프
##둘기
수력
퍼스
테르
곰팡이
현대인
문어
##천동
선언문
태클
화합물
Gre
아날
조제
끄덕
멧돼지
##활약
이글스
자판
급속도
더욱더
주술
일몰
##red
실무자
##ye
##노버
man
때린
못합니다
만끽
반출
##장면
##델라
빙하
임팩트
KDI
은은
전학
베란다
혼동
ac
##블린
하급
토미
나폴리
교묘
뜻밖
굶주
현미
##시경
두르
스러울
수축
단숨
단숨에
##기술
모셔
부총장
상국
수갑
클렌
통학
뭉치
능선
여직
적중
미친다
##리케
자국민
유람
판매자
마하
베어스
애써
내분
가평
##ason
진에
소령
해리스
수조
초유
카이로
가꾸
무시무시
퇴각
축출
##시험
역습
점퍼
부적합
디폴트
작위
원동력
는커녕
1943
따온
푸짐
이동해
변모
뱀파이어
박명
당겨
##차림
##버렸
인승
수영복
빼앗기
녹차
유니크
##오피아
에티오피아
저절
블랙리스트
##연구소
##right
Or
충원
돌아간다
KF
nhs
심재
##교동
##fl
병영
##저럭
초록색
지탱
플러그
슬라이드
ne
##소니
태안
정품
천막
##주얼
KG
발작
마일리
개회
할로
##럭저럭
##ise
김보
맹활약
받침
유시
##ino
명부
##자동
낮출
웃도
통칭
Fed
##ors
저스틴
막론
펼친다
김부겸
끓이
거듭나
복역
청동
재협상
흔들림
어처
개인전
목성
다스리
수건
##소수
SN
테크놀
한심
간다고
고강
청바지
수작
아이슬
무작정
커튼
Fl
총영
sbs
관하
취록
저절로
매칭
심도
##요시
##착륙
성화
금기
동산
##메인
흐리
비축
기해
전업
팰리스
테마파크
고부
##숭아
뽐내
세밀
체불
초인
할부
글쎄
##예산
노령
귀한
무진
선의
공사장
마주치
고층
오더
##메라
멜론
양승
북동부
하워드
선봉
기술원
시찰
아이슬란드
릴레이
정할
##25
밀린
육류
넷플
왕족
넷플릭스
성수
##재판
CO
연구회
##RO
단발
사들이
증발
무마
적재
디바이스
선구
피난처
생소
가전제품
라이온즈
실탄
폼페이
제국주의
경제력
##배상
고영
174
유모차
짓밟
마코
##erv
수심
못한다면
샤이
오븐
높인
방정식
의향
캐주얼
병동
행인
완주
빼돌린
경지
부쩍
LIG
담당관
qu
귀하
액자
바빠
모어
##크라
윤상현
일까요
단단히
여친
물기
안테
컬럼
후생
찾아갔
김석
달달
직행
부지런
자손
자칭
사무장
내뱉
산간
저번
절친
평결
헤매
##ife
용돈
조망
시노
##ichard
일리노이
어처구니
괴수
야스쿠니
라구
아니하
합창단
##bps
버릇
잇따른
김은
스위트
망고
반역
불릴
시킴
차츰
문인
모종
수인
그럭저럭
야경
오하
개명
독거
연회
이와
메이플
제물
요하
손꼽히
왕성
안상
버밍
교제
무서워
시외버스
투성이
회의록
결사
발산
위즈
##지수
보인다는
굴리
하이퍼
ruby
스테이트
굴복
비료
민망
백색
부담감
분유
NBC
추돌
올라서
페미니즘
안습
앤서니
친하
org
##ts
기압
면서도
##자부
##상스
##제철
가와
유태
평했
김기춘
꺼려
학비
PE
정태
자초
산란
##ram
##취업
발자국
부름
이코
네이처
고른
##도전
채찍
농작물
감독관
부제
증축
신빙
살인범
제시카
해져서
톡톡히
FOMC
처사
1910
그립
어휘
아날로그
조그만
법대
해인
##드로
장판
사이먼
놔두
내려앉
##러기
스팸
능숙
탈피
꾸리
가옥
갈래
몬테
영양소
짝퉁
경제학자
채운
법리
펑크
##소스
합시다
신당
필로
##타르
도르
장제
##어냈
분홍색
체리
아바타
준하
##워진
##왜란
카페인
겸임
지금껏
##춧가루
중앙당
임진왜란
차용
커멘트
스리랑카
영사
##니치
지지부진
All
박선
매니아
왕후
채권자
넷마
무한도전
직관
발표회
길가
잉크
확연히
비장
블러드
사나이
용인시
닭고기
대마초
경복궁
여종
##드래곤
떨어진다는
대열
배관
THE
Bar
we
부녀
숙이
팬텀
##예프
멈춘
넥타이
유화
흘렀
당당히
콩쿠르
어설
지평
느니
여군
넷마블
레이크
끈질
##레마
##갈비
자산관리
드릴게요
##개골
에로
홍삼
남대문
번번
재판장
둬야
ag
이효
상경
양현
희박
스트로
pp
레이어
설화
##미디어
isis
심했
기묘
손해배상
##ler
코바
취약점
무신
출항
MWC
##LA
피드백
명중률
웨일스
테라스
픽업
##코지
서독
비행장
##urn
한림
해산물
운하
순항
꺼지
써도
글리
관용
시판
전량
종속
테드
판세
##턴트
전화기
##GA
관저
무례
##중독
사과문
내란
암석
컨설턴트
아치
왕따
소화기
성수기
카피
흉터
전병헌
대시
모터스
만행
소비에트
##이동
울릉도
씁쓸
##ata
가로챈
워즈
##렁크
델타
얻어맞
출사
폐해
면도
유니버
선보여
결투
##중간
들린다
경마
멋있
##데르
##봐도
내준
빈약
해머
왔으나
닉네임
외전
잡음
피아니스트
비둘기
핫뉴스
트렁크
노원구
덩달
살린
민첩
어벤
##제이
##수단
대나무
라트
상병
십니다
고용주
놓친
생태계
조건부
요코하마
탐욕
헷갈
어려우
선천
##는데
레미
초간
맡긴
이단
사무관
일식
혹독
법률안
심폐
매거진
체형
BR
##color
밀란
누수
네이트
레온
이안
인디언
보험업
김신
교향곡
te
매스
##자스
두들겨
견과
이동하
실증
아버
마리화나
슈퍼맨
전범
전한다
##로그램
현대증권
건너편
##장구
##께요
타고
입출
쓰러뜨리
산호
유례
하동
서거
원문
비우
스파크
르네상스
부총
인디애나
CV
오니
이륙
아리아
gre
품안
고용부
NO
##실히
술부
상한선
##곡히
##기념
생수
시네마
##미애
계엄
정적
들어설
훈훈
짬뽕
가로수
##데기
##바퀴
미주리
##내기
깡패
성적표
##ke
##보리
에이전트
장본
##ows
##덱스
##play
도배
##히드
쓰러졌
발기
모을
싱어
질소
보성
징벌
들인
두터
안장
FR
Michael
골격
포상금
##바리
습도
KDB
동독
##만금
스탬
우발
##킵니다
석유공사
버밍엄
전라도
추징
타스
맞먹
영예
황소
철도역
강압
트로이
살아갈
명심
만져
신민
전류
세습
##조림
손발
꼴찌
유적지
공해
영종
간행
더해
식중독
##la
PF
배당금
티코
Pr
##산성
구태
##ition
##나미
야망
도깨비
라이센스
국방위
이방
압승
잊어버
쓰레기통
중개사
점주
지구대
휩싸였
누렸
메커
에리
레닌
병무
RC
교통안전
튕겨
반항
돼도
인대
이따
오죽
##링턴
얼리
주황
스키장
깃털
비자금
파고들
혹시나
묵인
산물
지나간
기이
##나갔
실존
자각
##be
팬티
초음파
본진
양천구
당나라
윤종
##raph
##오드
##투아
고속버스
노회찬
##히코
관사
질책
착오
이라든지
만류
범용
##산동
340
성탄
##터스
금발
블럭
##ifa
My
고졸
끝낸
선반
ha
##lin
문책
페달
##함마드
기념비
나물
캐슬
##밴드
강동구
시크릿
들어온다
연장선
##enc
새만금
공사비
고의로
놨다
창건
사회학
전임자
친다
끼쳤
수출액
갯벌
아틀레
KCC
줄거리
고추장
동백
응징
IBK
포유
그런가
연기자
탄환
타개
통근
괴산
나타낸다
##구름
페라리
##티모어
##바스
고품
지킨
##ital
205
식초
훈련장
부총재
흡혈
춤추
##코프
레인지
오인
내과
저우
위약
볼티모어
특구
##드기
풍력
내려다
와이어
필립스
우동
부식
그래서인지
으라는
선지
조나
##ics
내신
극찬
답한
저질러
부원
오션
일주
계약금
부사관
강추
독소
블루스
재취업
이근
배부
up
입장료
BJ
금세
송전탑
창시
##제르
소방차
서핑
##남동
##번트
메커니즘
노렸
fr
우여
##내려
담그
밀렸
문희
시달렸
버크
소실
##가시
라미
포석
경미
베인
피겨
##슐리
럭비
빈티지
회유
무자비
##미트
갈아타
말린
삼성동
박힌
온전
테헤
신다
원두
두개골
태조
밝혀야
압구
구운
##자와
요지
We
태종
방언
징병
ATM
양동
가칭
일수
##관광
루터
김효
따내
우뚝
난간
라든지
생김
##프레스
##올랐
결속
억만
으로선
삼척
위엄
로드리
공격자
자석
열병식
외제
##eck
내뿜
중랑
미투
태양계
에버랜드
유혈
맡길
##75
평가전
렌터
렌터카
플래닛
혼수
##이자
암살자
항변
안테나
##사르
과부
비운
War
진수
장본인
1938
일품
양복
따른다
입주민
재혼
테헤란
현충원
##더기
신의
설마
복식
우상호
청하
1937
만전
포옹
이우
빈민
통관
롤링
물러서
라그
풀린
움켜
콘퍼런스
군림
정치국
교포
하스
면회
종편
매너
역풍
999
선뜻
다퉈
단자
서번트
해내
케이티
중령
발신
어울려
질수록
1936
서인
체하
##진다는
돌린
세속
벼랑
후안
자서
선거인단
##만다
놓였
양도세
역행
들판
스택
일찍이
비상사태
2021
기동성
mg
불린
Gl
올바르
코난
##ings
기울였
아주머니
산책로
방황
추도
이놈
해남
늘어놓
토목
트러블
닥치
코오
알릴
기자단
토의
유카
입상
방관
데려다
탐사선
##곡절
제품군
근래
기정
윤병
작화
##라호
과감히
화약
고선
방호
##던트
연하
교민
가격대
콩고
아쉬웠
생겨서
성형외과
시모
##나리
달라붙
윈드
##밸리
제주시
마요
구민
노랑
수저
콩나물
투하
걸까
##워졌
아모레
일절
소서
##uz
소송법
우여곡절
강습
HS
이케아
나돌
중심부
CA
들으며
SDS
기괴
치른다
성역
마땅히
가석
버림
소공
양지
##21
가야
##erry
수칙
##그레
스프레이
##out
되돌리
고노
1914
다가올
과대
내건
모은다
심기
##마당
자력
국조
장안
누비
성씨
뚱뚱
멜라
추미애
IPO
보일러
서진
소치
문경
출하량
유배
광복절
미화
피츠버그
금지법
엄연히
##네이
위계
넘어설
배지
강판
일어서
허공
띄워
하마스
For
거장
어찌나
스칼
금산
스커트
송출
동작구
액정
로컬
섹션
204
고위직
##대사
경이
##지도
사이코
패한
사이언스
##23
기념행사
유사시
통행료
감식
이낙
론스타
풍미
no
생후
##라이언스
일으킨다
첫해
발레단
테이크
시향
##sa
모릅니다
불고기
감도
오비
##보스
웃기
태평
내심
이규
파랑
궁합
본성
이태원
##IV
##테이
피해야
전문지
눈동자
역점
옵니다
숙성
쐐기
뭉쳐
예우
떠넘기
이이
남다른
OK
원리금
채웠
가석방
참수
포퓰
포퓰리즘
초밥
가산점
벡터
수없이
정읍
대명사
상세히
선방
설교
하루빨리
달빛
발톱
고루
대미
브이
인포
격상
제작비
맞선
소급
십자군
뽑아내
아로
이선
사재
재일
러셀
국판
에콰
##erm
캐피털
리퍼트
에콰도르
타이탄
911
이회창
셧다운
두피
예비역
라덴
##ille
갖가지
무함마드
서영
오클라호
오클라호마
휴가철
입소문
금년
휴무
닷새
질렀
메릴랜드
유실
막부
##성동
백종
취해야
갤러
일본식
가한
두렵
기형
전자파
##ons
##lect
반부
패럴
##메르
콤비
망신
애쓰
다변
서신
도산
날린
아수
우두
##발전
생강
간략
먹히
이질
##예술
박현
CB
껴안
계획안
정병
한정판
매콤
입혀
##푸르트
국부
놓이
인도주의
코오롱
장타
피소
스트레
모독
백과
여드름
해군기지
소양
메리트
주워
거행
##원회
소비량
빗물
키프
참신
켄트
미식
불명예
안대
넘어간
##사랑
변태
서너
소위원회
후일
선적
경청
밸브
강경파
##하늘
한국군
미네랄
라운지
불어
빈틈
티저
##시계
들어야
이펙트
크래프트
토네
심리전
참기름
출발점
size
장대
시몬
히든
되새
혹평
부주
러쉬
악단
시험장
농심
방제
일부분
천식
대등
마모
서경
##타기
인공위성
kn
알려준다
왕가
학군
##orth
김규
남해안
혈중
장갑차
배차
준다면
실바
사청
게릴라
위아
유부
퓨전
충전기
소용돌이
완벽히
항아리
격돌
480
바랐
기와
프렌즈
해협
장년층
탤런트
총동원
밝혀내
마십시오
수돗
창간
수도권
위시
알파벳
HTC
풀려났
##학생회
난관
도르트
엠마
##OT
계량
세계인
피오
묘한
##식물
##갱이
DTI
마운트
박주영
희소
떨어져서
모기지
조계종
시게
휴먼
스털
WWE
탐지기
오차
행세
호불
호불호
동맥
##테면
박희
피살
베개
세세
##탄두
겸직
안전망
라크
##처리
폐막
##혁명
지망
세계일보
갑상선
재팬
##콘신
브레인
위스콘신
흘러나오
CH
버려서
프랑수아
center
동일본
들려주
포커스
동호회
gl
북동쪽
아츠
급수
만델라
border
막아
박자
공상
##킨슨
검은색
파나
깊숙이
어음
헤라
기색
드러날
길목
포맷
탄수
조던
만듭니다
저격수
이형
총학생회
##타니
기니
일용
버니
기울여야
안토니오
기탁
경화
##AL
잔잔
이사국
유스
집어
진다고
이낙연
법치
휘두
애용
보위
이석기
서태
배양
쓸쓸
NGO
스나이
프록시
고금리
캐리어
지하철역
아리스
사와
회고록
급부상
산적
초라
당사국
fifa
출근길
구내
보여서
돌아온다
와야
Am
뽑혔
피어
반짝이
##ney
김성근
스털링
산후
##바탕
저수지
도르트문트
롯데호텔
천연가스
해태
다정
둥글
섀도우
전관
갈릴
봅시다
유틸
유틸리티
뜬다
신율
팬츠
##idth
상수도
복숭아
##공격
옮겨져
CGV
무혐
더듬
디펜
산탄
장윤
신고자
오스틴
클레어
다쳐
채울
논산
하리
##야스
아껴
추론
외벽
애슐리
블레어
부피
이를테면
라임
네이션
조직법
##르르
차인
##ict
헌혈
택한
증여세
벼슬
주간지
숨겨져
죄인
루즈
펜실
##베이니아
펜실베이니아
초소
Ap
프리큐어
관악구
사교
원상
통진
민선
완치
##이행
신년사
플란트
##더미
양양
고산
##ward
경비대
괴리
코멘트
##모비스
현대모비스
큰일
소재지
앞세운
운석
곡인
전세금
남조선
##던지
OC
권오
거들
포켓몬스터
##ism
##커버그
달인
직계
게임기
여운
##IL
일례
##베이션
어김없이
##과점
노아
반쪽
봉합
정박
알아볼
는구나
성실히
조윤
둘러싸여
의과
치켜
해답
쫓기
물들
꺼냈
덜미
의석수
급제
경산
En
명나라
성토
설악산
시어머니
가브리
적임자
펭귄
거처
화나
Sm
브리스
수협
근무자
하순
남서쪽
전월세
안구
멀리서
박혀
던질
불기
얼라이언스
KI
유람선
정명
On
종영
##ery
5500
제갈량
노비
프랑크푸르트
아폴
갇히
##DS
터트
##소년단
역외
강대국
코파
##illiam
개포
고증
기껏
애쉬
##88
채굴
자켓
해낼
##장자
사용법
경전철
채식
어려서
배리
증거인
외교통상부
모디
##세훈
백혈병
파벌
당수
동래
양키스
로울
나들이
이변
브라더스
CT
바삭
공소시효
정파
스테인
좌초
290
좌표
그리워
##port
photo
품위
경협
단련
라틴어
알아차
단언
학장
제곱
액세스
##33
##충제
명실
마야
귀순
van
운전석
변한다
절개
피서
뷔페
연예계
##oz
모리스
피신
피파
독립운동가
줄여서
조모
함양
통용
멋대로
##ats
집행부
##러미
ld
매튜
분쇄
##irl
프레드
메이트
##베르트
끌어안
리뉴
김남
바니
반달
갈아입
wik
다급
바란
부스터
##rew
##아슬
비화
아슬아슬
##ck
확장팩
2025
앙상
힘써
남서부
수돗물
##ta
평온
##TT
보로
지킴
진드기
연기력
성행위
가까웠
정론
초빙
사계
올립니다
세워졌
서문
토네이도
어머님
듀스
흔드
##퉁이
유로파
지부장
그리드
고운
칵테일
스플
국화
쳐다
아자
정은
비노
설날
구석구석
책자
숟가락
블랙베리
##RS
날아오
늘린
좋아했
커트
마일리지
살라
목표물
주어졌
내쉬
묵묵히
석면
용접
캡쳐
피임
방탄소년단
대덕
##amm
강원랜드
부여받
핵탄두
든가
현저
야근
영조
안타까움
La
위자
으세요
자서전
테크놀로지
코네
지배력
원한다고
북경
퓨처
컬럼비아
이춘
이노베이션
고착
고흥
리트
헤딩
##22
원사
성범죄자
결여
겸하
순진
매달리
소름
남방
신대
몸살
서른
1918
모험가
후세인
익스프레스
월가
물놀이
진성
요기
시킵니다
파주시
픽셀
막연
오디
연꽃
피에르
Man
상큼
판서
대용량
결재
방망이
아반
##bur
Co
책무
토성
저렇
##짜기
장만
지구촌
참담
발사대
싱싱
소나기
스푼
가오
폴크스
##96
농경
틀어
모로코
문성
##용수
청소기
인단
페니
북한산
방어구
##레미
##ext
부원장
감격
World
서바이
아버님
살인죄
노멀
뒤따라
옷장
종파
제약사
별세
지쳐
공법
바깥쪽
면책
##방향
스케이트
귀농
온건
제각각
튜닝
##너무
제니퍼
UI
ge
우리은행
어우러져
스즈키
백서
소자
파밍
하얗
##edia
아토피
관현
너무너무
포스코건설
카일
하지
##ha
걷어
특임
청구서
할지라도
아울렛
비어
리플
도트
취항
했어야
살인자
외야수
유재석
딜레이
굵직
##맥스
싱크탱크
BL
##도록
연희
##세종
느껴질
신데렐라
니콜라스
시보
##깁니다
못한다고
등락
이바지
줄여야
호두
그레이엄
캔자스
모하메드
서유럽
조셉
크리켓
시바
메드
이학
팔라
관리인
좋아한다
방류
변기
고를
냉면
쥬얼
##우지
가파르
죄질
##년기
Love
##환자
연봉제
ps
이직
[unused0]
[unused1]
[unused2]
[unused3]
[unused4]
[unused5]
[unused6]
[unused7]
[unused8]
[unused9]
[unused10]
[unused11]
[unused12]
[unused13]
[unused14]
[unused15]
[unused16]
[unused17]
[unused18]
[unused19]
[unused20]
[unused21]
[unused22]
[unused23]
[unused24]
[unused25]
[unused26]
[unused27]
[unused28]
[unused29]
[unused30]
[unused31]
[unused32]
[unused33]
[unused34]
[unused35]
[unused36]
[unused37]
[unused38]
[unused39]
[unused40]
[unused41]
[unused42]
[unused43]
[unused44]
[unused45]
[unused46]
[unused47]
[unused48]
[unused49]
[unused50]
[unused51]
[unused52]
[unused53]
[unused54]
[unused55]
[unused56]
[unused57]
[unused58]
[unused59]
[unused60]
[unused61]
[unused62]
[unused63]
[unused64]
[unused65]
[unused66]
[unused67]
[unused68]
[unused69]
[unused70]
[unused71]
[unused72]
[unused73]
[unused74]
[unused75]
[unused76]
[unused77]
[unused78]
[unused79]
[unused80]
[unused81]
[unused82]
[unused83]
[unused84]
[unused85]
[unused86]
[unused87]
[unused88]
[unused89]
[unused90]
[unused91]
[unused92]
[unused93]
[unused94]
[unused95]
[unused96]
[unused97]
[unused98]
[unused99]
[unused100]
[unused101]
[unused102]
[unused103]
[unused104]
[unused105]
[unused106]
[unused107]
[unused108]
[unused109]
[unused110]
[unused111]
[unused112]
[unused113]
[unused114]
[unused115]
[unused116]
[unused117]
[unused118]
[unused119]
[unused120]
[unused121]
[unused122]
[unused123]
[unused124]
[unused125]
[unused126]
[unused127]
[unused128]
[unused129]
[unused130]
[unused131]
[unused132]
[unused133]
[unused134]
[unused135]
[unused136]
[unused137]
[unused138]
[unused139]
[unused140]
[unused141]
[unused142]
[unused143]
[unused144]
[unused145]
[unused146]
[unused147]
[unused148]
[unused149]
[unused150]
[unused151]
[unused152]
[unused153]
[unused154]
[unused155]
[unused156]
[unused157]
[unused158]
[unused159]
[unused160]
[unused161]
[unused162]
[unused163]
[unused164]
[unused165]
[unused166]
[unused167]
[unused168]
[unused169]
[unused170]
[unused171]
[unused172]
[unused173]
[unused174]
[unused175]
[unused176]
[unused177]
[unused178]
[unused179]
[unused180]
[unused181]
[unused182]
[unused183]
[unused184]
[unused185]
[unused186]
[unused187]
[unused188]
[unused189]
[unused190]
[unused191]
[unused192]
[unused193]
[unused194]
[unused195]
[unused196]
[unused197]
[unused198]
[unused199]
